ff
03
00
f5
f3
f2
04
f6
03
04
0b
06
f2
fa
09
0e
07
fd
fa
f9
f3
fe
29
0b
00
fe
04
fa
fd
16
f7
14
f5
e5
09
08
07
08
fe
f8
00
03
10
06
06
03
fe
10
e3
01
ec
0a
f5
f0
07
f7
04
1d
13
d2
ec
0d
1e
14
f7
f6
ff
e7
f2
0b
21
08
02
0a
04
0b
e2
07
f5
1d
00
ee
01
00
f8
fe
e8
07
e5
02
0b
19
00
f8
f4
fb
fd
17
0c
0d
f5
e2
0e
e9
ee
0b
03
18
f6
f1
fd
0b
f5
ed
0c
fc
0d
ff
f6
e4
e6
02
18
06
1c
fa
05
f7
07
fb
eb
fe
f8
eb
01
19
f8
07
0c
fe
0a
fb
05
04
05
01
06
f9
eb
fd
05
0c
fa
0c
f9
ff
f8
23
02
08
ff
e7
f6
fe
03
0b
fb
08
0b
fd
04
16
f8
00
0e
09
f8
12
0f
f4
eb
f5
fc
ec
12
0d
ce
f9
dd
0d
f2
05
02
fd
11
e9
f7
03
07
05
fb
11
f5
18
ed
0e
01
03
e3
00
f3
f5
f7
f5
d0
12
f2
f9
01
f6
ef
11
08
0e
ed
1b
08
04
ff
cf
06
17
06
f8
0c
f3
00
0c
fb
11
f9
f5
06
f9
07
08
fd
f0
00
02
09
18
1b
f8
f4
09
f5
01
f4
09
f2
0b
fc
0a
f3
04
fd
ed
ff
ff
0c
f8
05
0d
f5
ee
f5
e2
f0
09
fb
13
f7
08
ff
17
17
f2
fd
e3
fc
0e
0a
f4
06
fd
fe
fd
f2
15
f4
f1
13
0d
06
f9
f3
0d
0a
fa
04
06
0c
fc
15
f5
06
0d
0b
0b
0f
0b
03
fa
ff
f9
f8
fc
f8
0a
fb
00
fa
05
0d
f7
d9
fc
ea
e2
fa
cd
f2
f8
e0
03
f6
06
0b
03
01
06
f2
01
08
fe
f6
00
f3
ff
18
14
e9
11
e7
fa
da
ff
fc
07
f1
f7
fb
0e
01
0b
ea
f2
11
f7
09
f7
fe
ff
07
f1
fe
00
f6
0b
e9
fc
19
04
0e
01
e9
eb
fb
01
08
0d
1a
fe
eb
06
10
f1
01
fa
f7
ee
0e
1b
f0
0e
fc
f4
09
fe
04
f7
16
0e
f9
fc
f9
03
02
03
07
16
04
e3
f5
11
f0
fc
08
fc
e2
f8
1d
10
fa
0a
04
07
f8
0c
1b
f7
f3
07
10
f1
08
11
07
e9
05
00
03
17
06
ff
01
08
03
c7
ee
fa
eb
e2
04
0c
00
0d
f8
fb
0e
17
01
00
fa
01
08
0a
f5
f5
f9
f2
f7
fc
f2
02
0e
01
fe
f6
fc
12
02
f0
f4
f0
00
09
f5
f7
fb
0f
04
f3
04
fa
fd
f1
04
0f
16
04
f6
05
01
f1
f4
ec
0a
03
10
ff
fd
f8
fc
fe
00
05
f8
fb
01
1f
f3
0d
03
dd
25
11
08
f9
ff
fa
15
02
01
0d
ff
ff
0d
f0
e5
fa
eb
e6
0a
f5
02
ff
07
e0
fc
09
09
ff
f5
03
01
06
08
f3
05
10
06
fc
ff
0a
f4
09
ef
01
03
16
0d
08
e7
0e
00
f8
13
08
e0
ea
f8
fa
0d
04
ff
f1
f1
00
fa
13
02
f9
09
f1
06
d1
f0
15
19
01
da
f8
00
fb
fb
f2
f8
01
fe
ea
f2
e7
02
ff
14
f2
fb
06
f4
fd
fe
e7
fc
ee
0e
fa
09
15
07
0e
fc
02
fc
fe
fd
0a
fc
f1
04
f2
f7
0a
07
f9
02
01
fe
1a
19
fc
0b
ee
f2
1d
fc
0b
07
f8
04
09
fd
0f
fb
ee
fa
ff
ee
0f
0c
ff
f0
df
f8
f1
09
06
f7
f4
e7
12
ee
0a
f5
0b
0b
e3
ff
f1
00
fb
04
03
f4
03
ff
11
12
05
ff
04
01
ff
02
11
f0
0a
ce
06
06
01
ea
0b
fb
f9
fb
03
08
ef
fb
e0
f2
fa
f4
09
de
0b
0f
f5
04
14
0a
f7
f9
fb
05
14
f6
0b
fe
01
17
07
fd
eb
ff
fd
fe
fa
f0
06
f8
f6
f1
e5
23
f5
06
f4
f6
ff
fd
fe
ed
15
0a
12
fb
f8
0e
de
13
f0
ff
ef
fe
0e
e5
10
0b
f5
f6
0c
03
09
15
fd
ff
fc
09
ee
20
fa
06
05
05
0d
fb
f3
f4
f9
0b
00
f3
e9
ed
02
fe
0d
0b
05
f5
fe
10
0b
00
04
fb
ea
0e
ee
f3
fc
fc
fe
e8
13
07
0c
fe
f9
f1
09
f0
e2
04
13
06
f1
f0
07
00
ff
1f
04
10
0b
0c
f8
06
e4
e1
13
f3
02
fc
0d
d8
0a
03
06
f5
f5
fe
03
fe
ff
f6
07
f8
e6
00
fb
f9
0f
ed
f2
ed
fe
00
0b
fb
e6
fb
f8
08
05
dd
ec
09
fc
f0
02
f9
0b
1a
03
ea
fc
0c
e5
f2
f9
00
06
fd
08
19
e6
21
03
0d
02
fe
fe
fc
0f
e7
0e
06
06
06
12
fd
e0
f9
05
04
f1
ee
fd
04
de
ef
f5
0f
f7
13
05
fb
02
fc
00
27
f8
f7
00
fa
f1
eb
fb
0f
f6
00
14
ec
dd
00
08
f1
0e
ff
01
05
03
e9
e2
05
e3
f3
0c
00
17
09
fe
fb
06
eb
05
f2
f3
ed
f5
02
0c
f0
08
fe
f8
15
f3
05
0c
03
06
fe
14
14
06
fa
f9
f2
0a
e0
f1
f9
e0
02
ef
fc
ea
12
0a
0c
00
f3
f1
04
f7
e4
0d
e6
ed
2d
ef
ed
08
12
e2
ff
01
f8
23
0e
00
0e
f0
06
14
06
04
f6
f2
15
fa
05
11
00
f7
f9
07
06
f7
0a
e4
07
f0
f1
00
03
f2
ef
ed
fe
e3
17
f4
f6
07
f0
f4
31
f4
f0
0e
03
f5
03
0b
05
11
01
f5
ce
08
07
fa
f6
f8
14
02
f0
fa
e9
11
0e
11
ee
0a
23
0d
06
0a
fa
05
e2
f8
03
fa
02
fd
ea
df
0d
13
0b
fe
fc
08
12
0b
00
15
fe
fd
13
17
06
f7
01
02
