e9
f1
ed
f5
12
ee
0b
ed
d0
15
f2
fe
fc
04
e3
fd
f6
fe
12
13
fc
03
15
e4
ff
02
03
f0
00
18
27
ee
24
e8
f7
d8
e3
e5
d9
3a
01
fd
f3
f6
0f
e6
f5
e1
1e
d0
f0
e1
e9
fa
f1
09
eb
f2
09
e5
02
e6
e8
09
fa
0b
ea
fc
f8
01
07
01
f6
ff
07
fd
11
0f
f9
11
e0
f3
f8
0f
1d
05
0a
04
12
0c
09
01
11
df
f6
ff
0d
02
06
fe
ec
f2
05
0d
00
fd
f6
1d
fc
07
19
05
e9
f9
fd
f5
fe
f8
fc
e1
e8
0d
fa
03
19
ec
04
12
d3
14
0a
0b
e2
dc
0e
ed
f5
f7
23
06
ed
fc
00
03
0a
17
01
02
08
06
05
09
f9
f2
0d
e1
ea
01
e9
e3
f9
f1
f6
e0
f4
e8
ea
d5
07
0d
0b
f5
03
f7
15
fb
f9
f1
00
f1
07
f1
1a
f6
d8
0c
f1
fb
f5
0d
19
e9
10
e0
e5
fd
fe
0c
fb
fe
e6
d0
e4
ef
11
13
f4
03
f7
0c
08
0d
0a
07
03
db
fd
ee
1b
29
df
11
1f
ea
04
03
ea
22
f0
fd
05
f0
e0
0d
01
ec
df
e7
eb
15
f2
07
eb
d8
da
f0
21
dd
34
ed
01
f8
0d
0a
ea
de
0b
ff
25
01
09
17
df
0f
33
1d
05
0f
0a
f5
05
e9
05
f0
13
ea
f6
f4
e3
f7
f3
00
f2
00
f9
df
02
f4
17
04
e5
f3
e0
23
18
f2
dc
f8
f9
01
f4
14
f5
20
e4
fd
12
d9
e7
e3
fd
d8
10
14
ee
08
24
fc
02
d3
e0
fd
00
f9
f3
fc
f9
eb
f5
f6
fc
fa
fb
08
0a
22
03
e8
f1
e9
f1
08
04
dc
d8
f6
01
03
f3
01
fe
fd
f7
0d
ee
d5
f8
eb
dd
1c
02
fa
10
18
04
d9
22
d6
0a
e2
dc
0a
f5
0c
12
0b
00
05
06
ea
03
0f
1e
16
11
f1
f5
f3
02
fa
f0
e4
ba
eb
07
00
09
22
fb
f7
c7
00
05
f7
de
f7
15
b1
0d
0b
01
08
04
0e
00
ee
f3
1a
e0
27
de
f7
00
e6
d8
fe
0f
2b
ea
f2
0e
09
fb
ed
0c
ef
dd
f4
0b
f1
02
19
23
f4
fa
14
e4
14
f8
18
20
ef
04
1c
e3
01
04
fb
fa
fe
07
f1
0e
fe
1f
13
16
08
03
ea
df
13
f3
11
15
e6
04
f9
e7
f4
f1
03
ef
f0
fa
29
fb
f6
db
f6
f3
ec
2b
ff
03
29
e5
d5
0a
e6
dd
f2
14
d7
08
0a
10
12
04
f6
01
0b
11
fd
f2
e9
f2
e7
fe
19
00
13
fd
ee
f5
03
08
e1
d6
1c
02
f2
ed
dd
ee
06
16
f9
f5
09
bf
f7
f3
05
0f
07
0b
cb
03
df
eb
f7
fd
05
1f
02
12
02
e4
fc
25
f1
03
e6
07
f6
21
eb
d9
1e
0f
f3
10
f1
26
28
dd
0e
de
03
f8
05
00
0d
fe
e0
f7
15
01
04
fd
fc
08
23
fa
fd
fa
0a
c6
eb
f9
fe
04
f7
f5
ef
02
0d
f5
fc
f8
0b
14
08
d7
f3
ff
f7
ff
12
0b
14
1d
e1
14
09
00
fc
00
03
06
f5
f2
ef
e9
f4
f3
eb
f7
0f
e6
f4
e5
f3
03
e8
02
fd
03
d9
da
e9
06
f4
ed
fa
f0
04
00
0c
e6
f0
cc
0d
dd
09
0d
fd
fe
f0
09
1b
06
02
0d
ec
fa
ff
01
de
f2
f1
f4
e3
09
fc
f1
e1
e8
e0
f6
f9
f4
f4
0f
f0
c7
0d
f0
ff
0b
ef
f3
ff
e9
f6
1f
e8
1b
13
12
13
06
eb
00
0c
06
02
f3
e6
02
0f
fc
f9
1a
0a
e6
f0
06
0a
0f
21
1a
f0
dd
04
07
01
de
1d
00
01
ff
fb
07
02
03
19
e2
28
f6
27
e0
fb
e8
fb
f1
e6
fc
ff
05
ee
d1
f1
1b
13
2a
12
f8
eb
0c
f6
05
1c
e8
f2
f7
0b
04
f9
05
09
18
04
02
bd
1e
f9
fb
f0
13
17
18
e8
f2
be
0b
ee
fa
f2
e2
de
04
0c
0c
fe
f6
fb
f7
e4
3b
f6
e9
14
0e
f6
f4
fc
1c
fb
fc
f2
e4
f0
eb
f7
e5
18
1f
f3
df
11
f8
08
e6
05
0e
eb
f0
ef
fa
17
11
09
bf
1c
e9
0c
fe
02
05
02
d1
f7
0a
e2
ee
fb
e7
da
e1
0d
fb
eb
20
ea
f8
f3
f8
e2
eb
f1
fc
e9
f3
d1
07
e7
ec
e8
f3
dd
13
f1
04
f7
20
01
01
1b
f3
f6
ff
fc
16
17
0d
ff
17
00
fe
f4
1d
ee
0d
cb
0d
08
05
1c
ea
08
e6
13
f3
04
02
ed
f7
df
02
1b
e9
01
13
fb
d7
e5
08
fc
03
f8
1c
05
19
f9
e6
f6
15
ef
f1
f4
dc
16
00
ee
01
03
04
f9
03
ef
17
0a
07
07
f8
1b
fb
14
ee
eb
f4
bc
f6
e3
11
f7
0b
05
1f
e6
fa
de
f0
d2
1f
ee
27
fc
0a
0e
21
f0
0b
19
02
eb
ed
03
ec
14
e9
16
03
da
13
fb
21
e8
e0
e5
09
ff
f3
11
00
fe
fc
f6
28
04
10
1e
00
d0
1e
00
f6
f8
eb
fb
00
f8
17
e6
f3
0f
cd
fd
15
e9
04
d1
eb
08
ef
fb
0d
f4
f4
f1
db
db
f6
0e
02
f4
e1
ec
de
e3
0e
fd
15
12
ea
08
e3
e2
08
f6
0c
fe
f0
e6
ff
03
fd
07
0e
ed
08
f3
eb
0c
fd
03
08
f5
f4
f4
1c
0a
08
03
f5
07
0e
e5
26
07
06
09
f6
12
24
0d
0a
22
14
0c
f5
f5
02
20
07
15
fc
f0
cf
f3
ec
ed
03
ea
f9
f1
f9
f0
dd
22
02
25
0f
0f
f8
ee
f1
f4
e1
e0
00
f5
e7
e8
fa
e5
06
27
36
c8
08
cc
00
d8
da
c7
00
1e
0c
fe
26
07
0e
d0
0f
0b
03
bf
0d
fe
10
ea
e2
e2
0b
d9
f5
16
fd
19
d0
f7
04
f0
fd
e4
d4
0e
fe
f9
0d
ef
ee
2e
02
12
d5
0a
e7
bb
19
07
0b
08
f9
f5
f9
03
05
fd
12
d8
12
09
f9
f0
01
19
f4
f6
16
09
03
f8
13
f0
0b
f7
03
0a
04
e5
07
df
0a
10
f5
0b
d6
02
13
fe
0a
1e
dd
13
d9
fd
03
f6
0c
f6
21
1b
eb
ec
df
ec
0a
08
1b
09
e5
f4
ef
ff
fa
0e
e9
11
e6
04
f6
ee
f1
e6
d0
e9
f4
ef
fe
f5
da
e5
1b
fb
ed
fd
f6
16
e9
e2
00
f2
0c
ef
f1
18
f3
05
de
18
f1
07
1b
e2
18
f3
19
e6
18
f6
0f
fc
ec
f8
ea
d0
0c
0b
10
25
c2
f3
19
03
13
f3
ff
1a
27
14
f5
1a
fc
2a
13
dc
0c
0f
f7
fe
ff
e2
1b
00
ba
e1
f8
e3
d4
fa
e6
db
c5
1f
20
fa
fa
15
23
e0
01
d4
de
0c
f4
e8
00
02
08
0f
03
d9
06
d2
0d
d7
df
d2
dd
15
04
00
f5
fe
1b
ce
e7
f0
0a
e1
0d
0d
14
e9
f2
fd
f0
d5
f2
ed
f9
f2
05
05
15
0d
fd
d4
07
19
0f
0b
f7
0e
22
00
f1
e9
ec
fd
00
01
1d
f1
09
e0
0d
ff
dc
1e
01
0e
dd
1a
f0
f4
1d
eb
09
b4
9f
e8
1a
ea
ec
09
fc
e9
f7
04
11
03
0a
f1
19
04
00
dd
05
03
e5
fb
10
08
e7
ff
00
f2
dd
05
f3
0f
ed
f7
f8
ff
f7
11
13
01
0c
e7
d5
ea
db
d7
0c
09
ed
f8
f6
e2
e1
0c
10
0b
ef
e4
f1
16
f4
18
de
e7
1c
26
04
f5
ef
c4
e7
04
f1
12
3d
0a
0d
12
f9
f5
12
e4
f9
21
f2
ff
11
e9
f8
0f
da
e6
0d
fe
1d
d9
01
ef
01
05
da
f9
fa
d3
0a
02
04
0f
f7
04
fb
0c
09
12
e8
e0
f0
14
e2
f6
e6
ff
08
f3
10
cc
0d
dc
f4
f5
fa
0d
18
12
22
0b
ce
00
dc
f0
0e
f5
ea
fc
0c
ec
e6
06
ed
f8
fd
cb
fa
01
f2
ff
0c
fc
f0
e3
04
bf
1a
de
fa
0d
26
10
fd
14
fb
f1
f9
07
da
14
f9
20
fb
ec
07
f9
1b
f4
0f
02
fb
f5
dd
f6
03
df
22
09
1c
fd
04
16
0d
f9
13
09
0c
02
fc
09
fe
0d
d9
0e
dd
06
03
21
e6
0c
c9
f6
e6
0e
e6
03
e1
11
06
0b
06
f0
17
10
f8
d9
11
03
f5
07
0a
0b
f0
0f
18
e6
ed
06
f8
f2
ff
0b
cc
04
16
0a
06
ea
d9
06
02
0b
c8
0e
dc
ec
ce
29
ff
fa
22
e3
e3
bb
e9
0a
f3
c4
fb
03
ee
e0
19
f9
ee
0a
13
20
0f
e1
fa
f3
f3
e4
43
f3
0d
f8
18
0d
0a
ec
f9
d2
2e
23
13
15
ed
1a
0d
f5
0f
f8
0a
1f
1a
f5
0d
0d
fc
ec
fd
f5
12
14
00
0a
14
0f
21
1e
23
0e
06
cb
f4
f2
1a
fe
07
0f
e2
07
05
0f
f9
00
00
ec
20
fd
0b
ca
1a
01
13
fe
ef
11
13
16
f4
11
d7
fb
ff
2f
fc
fe
02
22
09
0e
2b
fe
f4
dd
09
fd
05
02
f1
f2
bf
fe
17
27
03
15
02
f4
04
c6
07
04
f1
09
f7
0f
1e
0d
f9
ff
2a
09
f7
0a
fe
1a
f8
0e
fb
06
03
fa
f4
dd
ff
f2
04
0d
03
f7
12
ce
00
fe
f6
00
f0
db
fc
1c
02
11
09
fd
13
f0
0e
00
0b
fb
00
ff
f9
f8
06
04
de
11
0b
06
df
06
ff
fe
08
0d
15
04
f3
13
ee
e2
14
1c
ff
e6
07
e6
16
e8
21
de
09
0a
0d
f1
f7
01
0a
01
f9
f5
ef
f4
19
f4
0d
f4
10
0b
fc
ee
28
08
e1
03
fb
02
fd
fa
f4
13
02
10
f7
fb
fa
f4
19
dc
ed
0f
1e
07
08
fd
f2
ef
f1
18
18
f4
0f
e4
12
20
f0
1d
04
18
20
d2
09
ee
ed
ec
fe
f4
fd
f5
f5
e6
10
02
13
ea
01
04
0d
21
f2
f1
f1
15
2a
15
d7
f3
0f
06
fb
ff
0d
f2
04
0f
15
f2
b3
01
ed
f9
0b
0f
fb
ed
df
0c
ec
00
02
1d
10
fb
12
e3
ff
fe
0d
06
07
f9
1e
e5
2b
ea
01
f6
f3
de
19
fa
fd
0f
fd
ef
ff
fc
16
16
09
0a
0f
ea
fa
f9
05
fb
f5
08
eb
f4
ee
e0
1d
f1
fa
f9
0d
08
20
01
15
f8
16
f5
17
f6
d3
28
03
e9
04
f6
07
f3
ff
23
f7
e8
db
01
12
cd
fb
f7
ef
e8
ee
ff
ed
ed
2c
e7
04
f9
f3
05
20
ed
eb
f2
0d
fb
06
e2
2a
da
f9
00
06
2e
f7
14
e8
fb
00
03
ea
0b
db
fa
03
fd
c9
16
da
f3
fb
f8
ff
fd
09
10
f6
1a
14
d3
03
fd
ee
13
f7
17
ee
02
08
f7
09
fa
20
00
d1
fe
0c
e5
08
08
04
03
f5
e4
fb
f1
f6
e9
10
fb
0a
27
fa
00
ea
fb
07
d3
06
f8
ed
01
f3
0d
e5
e5
f6
fc
00
f2
f3
d3
34
02
ee
fd
0e
0c
f5
07
eb
ee
18
0b
fa
d6
17
0e
fb
0b
fa
f1
0d
d6
06
f4
08
e9
1d
f1
fe
0e
20
e4
06
03
09
01
1d
f2
06
f7
fb
e9
fe
f6
fb
27
f8
12
00
df
f0
f1
07
17
cc
2a
08
f2
15
fc
0d
f6
f6
1c
00
23
0e
1d
05
15
25
12
11
25
eb
ee
e8
fc
dc
08
f5
02
fe
fe
fe
f5
10
f7
00
1a
e0
eb
f6
eb
fe
05
dc
09
dd
0c
08
f6
e0
02
f6
0c
07
ff
f8
0a
fe
ed
da
ef
e7
fd
0b
e0
da
0c
0a
07
fb
ee
e6
f1
27
dc
fa
f1
f2
06
fe
fd
dd
00
06
f7
d3
ea
1f
1c
ff
f2
fd
f8
f8
09
2a
08
10
0d
17
06
f8
0f
e7
fd
e8
fb
f7
0e
e6
02
e1
08
16
da
07
10
e9
eb
fa
0a
fa
de
e1
f6
e7
f5
f6
03
f3
f4
16
f9
0e
fc
f6
cc
08
0a
01
ed
f5
ef
f7
f9
ec
06
05
fa
e6
1a
24
e4
fd
ff
16
11
15
17
e3
c7
02
2b
0c
ff
da
04
f3
12
ed
e6
ef
fe
e5
20
32
ff
f5
fa
f0
f1
fc
f5
f3
03
1f
e8
07
fa
e7
fc
e9
03
29
0d
f4
1d
e8
04
f6
d3
d2
00
df
0b
e4
fb
d8
03
05
1d
0a
15
e4
02
03
11
fa
f1
01
ee
16
f0
ee
13
01
0e
08
f7
05
11
e5
fa
09
06
1b
18
d6
05
04
f1
d4
03
06
04
f5
0a
e5
15
ea
1a
25
fa
23
fa
ff
ee
05
24
f9
e5
f7
e5
09
0f
11
04
1f
fb
fc
0c
f5
e6
19
14
e9
db
f9
fd
0a
f1
ff
0f
06
de
da
09
f8
ed
f7
db
05
0c
18
0c
ee
f4
01
e6
1f
f7
e5
f1
fe
fa
f1
f5
f6
06
fe
fa
0f
f6
dc
e7
e6
28
f6
09
cc
0a
f7
e0
fe
04
0e
f1
00
03
1a
0f
d7
fe
e5
dd
f6
0e
f5
eb
01
fa
02
c8
e7
f7
0e
16
1b
01
fe
f5
f5
cb
f8
0d
10
06
f7
06
ff
fa
e6
f4
dd
08
08
02
1a
f8
06
00
04
04
f5
12
11
e8
fa
f7
db
14
d5
0d
fa
0e
f9
de
0a
e1
0b
fa
fb
fe
ed
ef
0d
0f
fb
e5
16
f8
fe
e0
11
18
f7
ef
17
0e
f6
ef
f3
05
ed
09
07
ed
ff
17
e1
eb
fd
f9
f8
f4
ec
ee
0c
41
1a
11
2e
d2
08
0e
00
e0
fc
e3
eb
fe
fb
08
f6
00
d6
cd
f5
00
fd
05
02
ef
fd
05
f2
f8
f2
08
08
c4
0c
fd
01
00
f6
f9
eb
04
0d
20
ec
f9
08
04
15
f0
0d
f1
fd
f1
0d
0c
04
11
e8
f6
f7
01
21
ff
f8
fe
c2
f4
0b
f3
03
00
f6
f7
ee
f1
fc
0d
ec
ed
f7
e7
ff
04
e9
10
f8
00
0b
1f
17
10
fe
0d
d2
12
f3
0d
1a
f1
ee
05
0d
0d
09
24
ea
13
fe
f3
ed
f1
06
e7
e7
02
21
06
0f
d1
ea
e7
f0
d3
ee
e2
09
1c
07
f4
e4
e0
26
eb
da
e7
d7
e0
fe
1f
ec
03
f2
ee
fa
0a
ff
0a
11
dc
ff
f8
a9
e1
e6
d5
f0
01
fb
e1
07
02
0a
04
15
06
1b
0f
e3
02
03
0c
ea
03
e8
02
0e
0d
01
03
dd
09
1a
f5
03
e8
06
12
fd
e9
f1
07
f3
08
f9
ec
f0
0c
03
fe
05
01
ed
07
1d
0f
ff
ee
fc
08
e9
0d
11
0a
1d
fe
09
ea
e9
fe
f2
e2
fa
f4
fb
fa
09
05
eb
f9
03
fc
ed
fe
14
eb
04
0f
f1
2d
04
e1
f9
be
ef
04
16
0c
0a
1b
19
0b
ee
19
35
f5
e5
eb
fd
00
17
f5
05
03
08
fc
f0
14
fa
ff
e2
12
09
f3
0b
f2
1f
ec
39
e7
0a
ef
08
dd
f6
05
0a
f1
f5
0e
08
fb
12
0f
12
0c
e7
1f
14
fe
ff
f1
f9
0f
06
01
02
d9
ff
12
04
00
fd
fb
0f
f6
fe
fa
05
09
11
e7
f4
ec
fd
05
03
e6
e7
04
e5
eb
09
fd
01
f0
20
24
fc
19
01
c8
f6
ea
fa
11
19
15
ea
d0
ed
0d
03
f6
04
04
f1
f3
0f
f7
e9
de
f9
05
16
fc
f7
e2
f6
e5
fd
13
f6
04
04
f6
01
02
0e
09
03
ec
02
04
e6
05
ea
ea
eb
0a
18
fb
f8
02
fa
f6
1a
0a
d7
dd
12
c9
02
00
00
03
00
f1
bd
f2
10
f2
f5
06
e9
18
18
ec
00
dd
ff
e2
07
f6
f9
01
e6
ea
fc
e2
1d
00
fa
ff
00
fe
ff
07
f9
3f
0a
13
ee
e3
02
12
eb
c7
01
ff
14
f4
13
e7
35
26
f5
0f
1c
21
0c
08
0d
02
08
08
0f
18
d2
f9
ff
e6
1f
23
d9
d8
ff
1e
16
f2
f3
e4
0d
f9
16
09
03
f2
31
f9
25
12
00
0a
22
e9
0a
fe
03
fb
ef
f4
fa
ee
ef
12
f1
fc
27
d1
04
fb
f9
f9
04
ea
ef
26
0b
f8
e3
df
0f
ff
f8
fc
d9
dd
08
1a
f2
c9
fe
f8
05
e1
19
eb
f7
0c
f5
04
04
fc
0a
fa
e2
0a
06
0b
da
14
e9
ed
d8
e0
1c
ee
de
f2
ef
f0
0c
c8
ff
ec
13
f7
1f
15
17
06
f1
00
f2
fe
f3
19
f0
ff
25
f4
16
02
11
1d
fe
06
18
04
0b
da
e3
e8
04
e0
e5
16
22
e9
c6
f9
06
ee
fe
24
ed
f9
f8
ff
de
f5
fe
09
1b
ee
0a
0f
14
17
04
f4
e6
e5
02
15
ed
f2
08
02
df
fc
f6
05
04
0b
f6
00
f8
f9
e8
d9
fb
fb
fd
d9
ef
13
02
e2
f2
fc
ec
12
08
fc
ff
f5
f9
22
18
29
0c
10
25
0f
ef
23
11
11
18
ed
08
0a
02
e6
f9
05
21
1f
06
11
fc
fe
ff
df
16
17
00
fc
e9
0b
eb
00
fa
05
0f
11
ef
e3
0d
f9
03
fa
10
e7
12
00
04
07
07
00
22
fe
0d
e3
0b
ec
09
d9
2a
0d
f5
e9
ee
e0
fa
f2
db
e0
fb
dc
07
f0
16
fa
05
ec
0b
10
ee
02
fa
c2
0b
e7
f5
09
f8
f5
dc
fe
e3
f5
00
ed
03
fa
25
25
ea
f5
f0
1f
02
0e
0c
07
d7
f6
16
00
1c
06
1b
43
f1
ed
21
01
02
e4
f3
d4
11
fa
ec
f4
b9
00
f4
e4
ff
06
e5
e7
f1
11
08
fc
0a
e6
1a
fc
f0
03
e9
db
1f
07
11
f5
03
fe
0a
03
d5
01
cb
f9
ec
09
fe
f7
df
dc
da
df
0e
da
fe
e9
00
bd
10
1f
13
ff
07
0d
e9
e6
16
f3
0c
fa
15
fd
20
02
f7
e4
e6
0e
ff
f1
fe
e8
f3
04
ea
f3
e3
e8
f1
0d
fe
fe
0b
e9
ee
e6
e0
0e
09
fc
0d
24
17
b4
06
f4
f7
f5
f8
0a
fb
e1
f5
eb
01
e7
ea
01
09
e8
1c
ee
ec
1a
fa
02
09
f9
fe
ed
01
06
f3
dd
f7
10
0d
09
e3
0d
f2
ff
02
ee
ee
f4
02
00
e6
f1
0d
f7
fc
07
13
bf
fd
f6
ee
d1
d5
03
f4
c5
dc
e1
00
20
12
f3
f3
e3
fd
fc
23
2c
00
13
df
0b
ef
ef
12
06
06
00
f8
eb
06
ff
fe
23
01
f2
14
17
f9
19
eb
1f
12
0d
fd
23
0a
f4
eb
ff
03
f1
ec
e5
0d
00
1a
06
06
cc
f1
e8
09
2f
e4
fb
f6
12
15
17
02
d9
f3
0a
01
f4
dd
07
13
e3
02
07
0c
0a
f3
f3
ec
e7
ec
03
01
fd
fe
eb
0f
26
f9
0c
e7
ef
e7
07
dd
06
07
ef
0b
ee
23
f5
14
05
15
10
0b
ef
fb
f5
f3
f2
0d
ec
fc
13
fa
0b
0f
f2
14
17
f5
eb
db
0e
f8
28
e3
10
f1
f7
fc
cc
19
df
07
f9
0e
fe
f2
f7
f3
02
28
ed
02
03
ea
0a
eb
05
e1
0e
f5
fd
07
06
cf
fa
14
25
db
0d
19
0e
d7
f1
1f
db
04
0b
fe
11
f3
06
fb
16
07
06
02
1d
e9
05
0d
0f
0c
0e
0e
ea
c1
01
0e
06
fa
f2
da
f4
04
08
d3
dc
f0
d5
f2
12
f0
ff
06
22
e4
f0
f7
06
01
02
d4
fe
f9
06
e5
14
f9
13
f1
f8
0e
eb
e2
f5
11
0b
1a
09
3e
fa
0c
f9
f2
0a
07
f4
e7
ff
ff
2b
29
fb
fd
20
f5
cf
d9
0a
1d
e6
09
ec
ee
fe
ff
20
c4
f6
f8
fe
eb
0f
e8
df
06
fb
fc
0b
f4
02
e7
f2
08
03
0e
07
0c
f0
0d
1d
cf
f5
ef
fc
20
20
fb
f7
0f
f3
08
f7
18
f4
17
e7
02
e4
13
f7
0b
02
0c
1a
11
0f
e8
10
e6
f2
0e
ef
e6
ec
1d
31
0c
0c
13
f3
fe
fc
e4
fd
15
ea
db
d9
e1
05
26
df
f1
04
04
fc
f0
09
fe
f6
ff
e1
ef
f9
13
f8
08
01
fe
f4
fd
15
cd
0e
20
00
09
e5
00
d4
f9
1b
f9
13
02
e2
f0
eb
e7
22
e0
fd
0b
12
fb
00
dd
c5
15
f9
0e
2d
e6
f3
0b
08
fc
f9
04
f9
e2
dd
f3
13
0a
d1
e8
ef
23
28
1f
1f
f9
ea
ee
f3
ea
f3
12
fe
15
09
e9
f2
0f
f7
1d
01
00
04
00
fa
f6
f1
08
0e
e5
01
ff
12
f0
0f
15
e8
0f
17
f2
1e
07
00
e6
02
e6
f9
15
eb
09
ea
03
fd
f9
fa
20
fc
16
eb
ef
f3
15
10
ed
0d
ee
19
03
17
ef
11
0c
ff
ff
07
f6
02
0d
e6
fd
24
f9
17
cd
f7
e3
f9
ed
03
08
fc
0b
0e
e6
f0
ee
eb
0b
f0
fb
09
fe
f4
f9
f7
0c
b5
e9
00
06
06
0d
eb
03
05
fc
e3
f6
e9
07
f9
ea
04
fb
00
19
fb
e9
f4
ea
de
fb
05
03
01
18
0b
17
0e
2c
1c
07
19
03
f8
05
ef
e0
2d
fb
0c
21
ec
f3
fa
ed
ec
ed
dc
0a
20
11
05
1b
1d
02
21
f2
16
e3
ec
0c
01
de
1e
ed
f8
eb
05
0c
d4
00
fa
07
ee
ec
dc
df
e2
06
f9
0c
2d
1a
fd
02
06
14
04
da
fe
1a
e9
fa
0a
0e
f4
fb
fb
f6
ed
03
fb
1c
17
05
f1
f1
e2
f5
eb
08
fc
f5
cd
08
0c
f7
f5
08
05
dd
fb
01
da
1a
fb
01
0b
0f
e3
00
b4
fb
e6
00
fd
04
15
18
0f
11
1f
1f
f2
ec
f9
e6
bd
f5
fc
03
00
21
fd
0c
26
1e
f8
f8
02
f1
04
03
07
01
fd
05
f9
fa
ea
02
0c
f3
fa
ee
ee
0c
05
13
05
f0
02
f3
fc
17
01
f4
d5
06
d4
f9
09
f6
0f
0e
e6
02
eb
10
f9
f6
f1
f7
0c
02
e9
ec
10
f6
e6
fd
12
11
f1
ff
04
03
ff
f7
20
19
e5
16
09
eb
10
0f
f1
00
10
f8
09
15
ed
08
f8
d8
f8
15
ef
eb
16
02
e7
e7
ea
fb
e3
e8
db
2e
1d
0f
09
ef
fe
43
0c
ef
27
cc
f7
05
ea
f7
f2
fb
d1
0c
06
fb
f6
f1
f8
22
fa
f7
0b
0c
fa
07
e1
24
0d
07
fb
ea
12
d6
1b
b1
fc
06
f6
0f
25
eb
e7
15
ea
f1
04
1e
ea
05
f7
01
fb
0a
06
0f
0d
d8
fe
28
cf
f1
18
f2
f6
fe
0d
f4
fe
0e
da
f7
0a
0d
fc
0b
02
f2
01
dc
dd
e3
eb
c6
02
ee
03
e3
ff
0b
e9
1a
ee
27
17
f4
f5
1f
ff
fb
07
f4
f1
38
f6
0e
e0
f6
d2
05
fd
e0
e7
f5
f8
fe
fc
26
2e
0f
13
e5
07
f6
dc
12
ca
e4
00
ed
ff
ea
f9
f8
fd
dd
fd
f3
d8
0c
c7
ee
bc
ef
ea
05
fa
f9
37
18
0a
0e
1a
d2
f7
10
e4
03
07
0d
ff
12
f3
ec
00
01
da
06
03
05
0b
ec
f7
d3
1f
0e
ea
e7
e9
09
d9
f6
f8
f2
02
05
e8
0c
04
07
de
14
f5
01
11
f1
2c
03
10
0b
1b
01
e5
23
e2
05
fb
fe
ef
0b
09
de
fe
f2
12
f0
1a
ff
fd
f9
12
f3
f6
