e7
fa
fd
f2
fa
04
f1
fa
07
e7
00
1c
ff
f4
13
ff
02
fa
f0
f7
f2
f8
fa
fb
0d
f9
10
f2
09
fa
ef
f6
ff
06
ee
ef
fc
da
eb
14
ff
fb
e9
d1
ff
f1
17
ff
fb
07
f7
fb
03
f7
06
e9
f4
00
fb
f2
e8
05
fe
f4
f4
0b
0b
d9
03
de
00
f8
03
e6
fd
0e
11
f9
f8
00
0e
00
0e
09
df
07
fa
f9
fa
01
02
0a
03
da
00
0e
ed
fe
ec
02
ec
f7
05
0b
05
11
fd
fe
f8
f4
f6
00
ef
f6
05
ff
05
ff
11
e9
fb
f9
f7
f1
02
0a
e8
f1
ec
fb
02
10
e6
02
00
ea
13
fd
d8
fe
fe
fa
0f
f7
f7
06
0d
ff
12
13
05
04
fc
f1
fa
e5
ec
05
0b
13
fb
ea
eb
0e
f7
1e
f2
e8
ea
06
fc
ec
0d
01
fc
07
03
e4
fb
0a
f7
f2
0e
0a
fb
0e
f5
ed
ea
19
fa
14
1c
ee
f1
e8
fc
f6
2b
fb
ea
01
0a
f7
d4
01
e6
fc
f8
0f
e8
16
f9
01
06
f3
f2
03
eb
ed
04
e7
f5
fc
0e
10
07
0e
06
f7
11
0b
f0
fa
ef
fb
e2
0c
e3
f0
10
02
f3
fa
01
f0
f3
02
06
17
f9
0d
f8
04
13
0e
11
f4
f1
fd
f0
07
11
e6
03
04
ff
eb
e7
f0
d2
10
fd
03
f7
08
f5
0b
fe
fa
f7
f8
f5
f1
fe
03
00
f7
fc
f1
0d
f7
f9
f0
0b
06
fd
f9
d8
f1
eb
12
fa
09
eb
13
06
fe
e2
0e
02
02
f6
ed
ee
f5
f5
f5
1a
00
f5
df
f8
0d
ed
ed
02
03
0d
0e
02
0c
02
02
f3
02
05
ee
f1
fa
ee
f2
07
dc
f1
fc
09
fe
07
0e
fe
f9
c2
e6
0b
f6
ed
e4
0a
08
01
f9
cf
f6
0f
02
fe
13
fe
f7
04
01
f1
f8
f3
cb
d5
f8
0b
f2
fc
03
ee
fa
df
05
13
14
fa
da
06
11
e3
fc
02
02
f5
f4
05
ff
0a
dc
ef
0f
c9
08
03
ef
f8
10
fd
02
0e
0e
e7
f1
15
03
fa
ff
f5
06
18
0b
fc
f1
ed
f6
eb
e3
f4
fd
f1
10
f6
03
fb
f4
fe
f5
e7
fb
eb
f3
eb
ef
e8
ce
0a
f3
fb
fa
12
07
05
03
09
f4
f2
f8
fe
fc
f7
05
01
ed
f1
f8
0a
03
fa
0e
08
fc
f5
01
24
f8
e6
fd
0a
00
fc
ed
01
f0
15
02
ff
f3
08
ea
f4
f3
ed
06
0d
f2
fe
16
04
fc
f6
f6
e5
f7
f9
fb
fc
fe
f7
fd
ef
0e
0a
fa
0c
f5
e9
f9
03
08
04
f7
fb
f9
ed
0a
f0
ef
f3
fe
eb
db
fc
f5
03
eb
f6
f6
f8
f0
de
09
ef
04
02
fd
00
e8
f9
0d
e9
0d
02
fe
05
f7
fc
0a
f9
f7
05
f1
f6
01
f7
fe
03
12
f7
f7
03
0b
e4
fb
fc
08
fb
0d
f5
e8
fb
f9
f6
0c
f7
ef
0c
f8
0f
fd
03
ff
00
07
f7
f1
fc
e9
ce
08
07
13
08
02
e3
fb
f0
fa
f8
f8
12
ee
02
0b
f5
0c
f0
04
e8
f5
f1
f6
e1
06
fc
ee
08
ed
0d
f8
06
0b
f3
01
fe
f8
e2
f1
00
02
00
06
e7
f2
f2
db
02
15
04
f1
03
04
f1
ef
fb
07
09
fb
0c
03
ff
03
fb
04
f9
09
fa
03
00
f2
05
fc
1d
f6
f7
0a
fb
f9
f3
ff
ee
0d
04
0e
08
03
03
ec
f9
f4
03
f3
0b
fb
0d
ff
fb
03
fe
f8
01
09
ff
fb
08
02
eb
04
13
13
f8
fd
e6
f0
f8
fb
ee
04
02
00
f7
08
00
fa
04
fc
00
f2
f2
fa
fd
f9
f9
fb
f8
00
0f
fc
09
f8
02
0a
fa
f5
0c
ea
0f
15
f8
fc
0e
09
0f
f2
ee
02
07
02
f3
f7
f5
06
ff
f8
e8
0a
fe
fb
ef
fc
00
ff
0d
f5
06
02
f6
f4
f8
f2
fe
11
f3
07
f4
fe
0c
0b
f8
07
04
fa
00
f5
f2
fe
f7
fd
f3
01
ee
e9
f5
fe
0b
0d
ec
07
20
1f
ec
ed
ee
eb
ef
19
04
08
fc
07
19
07
04
16
e6
e7
06
f5
0b
06
03
f4
fd
fb
f3
fe
f9
04
fb
f6
0f
e0
01
05
f6
08
03
f3
f6
04
f2
ea
0f
f8
0c
ff
f7
03
fe
ef
fe
fe
08
fd
08
04
ed
09
f8
f6
ef
fa
01
ef
fd
e9
00
fc
03
0b
02
07
ef
18
f1
02
f2
08
f4
0a
0e
07
fc
fc
00
05
12
f3
06
05
f4
13
01
04
0e
ff
e4
0e
0b
08
f9
eb
f5
e2
f4
0a
fe
04
f5
fe
e7
01
df
f7
0f
ef
f0
17
0e
0a
f8
07
1d
20
03
e5
f2
e8
03
f1
ff
ec
ec
0e
0c
fe
01
08
01
07
fa
01
f3
08
0f
fd
07
0f
01
ed
fa
07
ec
04
fe
08
ea
fe
02
08
0b
02
04
fe
fe
12
fd
0d
09
08
ff
0a
fe
fd
f8
05
eb
fa
da
09
02
0a
f7
14
f2
fa
10
01
06
01
f3
03
09
fc
f2
05
07
ea
0f
f8
f9
f7
f7
f3
df
fa
f4
0d
01
fd
f8
12
e0
fb
02
d9
f2
0c
f6
0d
04
02
ff
02
eb
f8
18
fd
f4
e8
ed
0b
db
e5
09
fb
fb
ec
ea
0a
f1
fb
f1
ff
06
e9
04
f8
f2
f0
db
f4
db
eb
ff
fc
00
07
f3
07
04
fd
01
dc
eb
fa
0c
f6
ea
eb
e7
01
e3
05
d0
0f
d3
0b
08
f2
e4
ef
0b
ff
01
07
f8
f6
ff
0a
19
07
05
0c
15
f7
13
03
fa
e6
e5
03
02
ea
07
ff
06
12
dd
0b
ee
fc
05
d5
f6
f7
fa
f6
f7
01
e3
ed
07
f8
fa
04
0c
f0
f2
e6
fe
fd
fc
fa
07
fa
f8
00
ec
f6
f0
f2
0e
0e
03
fc
e5
fb
f0
e4
fb
f9
1a
f1
0b
07
05
01
07
0e
f0
0c
23
f5
fb
f5
f0
fb
0a
e9
07
fa
03
15
0e
09
02
0c
03
fe
03
02
fd
ec
ea
05
f4
01
09
f0
04
fe
fb
f5
f1
0e
f5
f8
fd
fe
fc
07
09
fb
05
02
00
0b
fd
07
ff
13
fa
fd
f7
f6
07
f6
05
f0
1e
f0
fb
fd
ee
f8
09
f6
fe
02
f1
f1
fb
e9
fc
f4
0b
02
f0
05
00
04
fc
04
fb
00
f5
04
0c
07
ec
01
0c
17
18
fa
fd
02
04
05
0b
07
f1
16
02
f0
fe
04
f6
e9
f7
fa
f4
03
04
08
fd
01
0c
ea
09
f3
f9
0b
ea
11
09
05
09
14
00
05
fb
f8
00
f1
ff
f7
0f
0e
fb
ed
11
f4
fc
00
fc
fa
f8
0b
02
e9
09
10
03
fb
e7
0b
04
03
f3
14
fe
ff
0e
14
f8
f9
01
f5
f5
fe
0d
e2
0d
02
f4
0c
fe
f2
06
f8
df
02
09
10
f2
f5
07
fd
f1
15
f0
fd
0e
05
0a
f7
f3
e7
ed
f1
03
f3
b0
ea
f3
f9
e7
d1
fd
fd
fe
05
0a
08
f0
eb
0c
f7
fa
04
15
fa
fe
03
f2
e4
da
1a
02
f6
f2
19
14
ba
08
06
0f
f8
07
14
fb
fa
f6
f9
f0
08
02
fe
0c
04
f7
06
f8
05
01
0c
e6
1e
17
16
f4
fd
00
03
e9
04
03
d8
00
01
f2
fd
f7
04
e7
e1
06
f1
0f
f8
de
04
f9
00
0e
fa
fc
0b
12
f1
ef
12
e7
f2
0a
f1
f6
10
ea
ec
e4
f4
de
f0
f3
f7
fe
fd
0a
02
00
0f
03
02
fa
fe
09
07
e8
fb
0b
e4
df
f5
f2
e9
0b
13
06
ef
ef
03
10
0a
f5
e2
ff
14
10
f7
00
00
15
e7
0d
e6
03
fc
10
00
01
01
f9
e6
ed
fd
f8
f0
f7
f9
02
ee
0b
05
01
09
03
dc
05
cf
e1
0c
06
03
de
de
f1
04
ee
07
04
d8
e0
15
06
ed
ff
1c
fe
04
04
e6
f9
f9
fc
fa
fe
fa
07
f6
fd
e8
f8
04
d4
dd
04
fe
fe
0f
f4
f1
0d
04
03
fd
f5
0b
01
fb
0a
0d
fa
fa
06
08
e9
11
02
04
08
e1
fe
fe
05
e5
f9
fc
ff
04
01
e9
0d
0b
03
f0
ec
e9
fa
e1
0c
0d
fa
0a
09
f6
fd
04
e3
ec
07
07
f7
df
ea
0d
fa
0a
fa
ff
f8
f9
f4
ef
f5
e2
f2
f7
fa
e6
04
f3
0f
df
fb
0c
02
fe
f6
0b
fe
06
19
02
fd
05
00
fb
17
0f
15
04
fd
fe
01
01
fc
0a
fd
fb
01
f6
fe
ff
01
f8
fa
04
12
01
09
fb
f3
f1
eb
de
0a
01
f8
06
fb
fd
ff
0c
01
1e
f6
e6
05
fe
f3
e9
00
f3
16
f2
0a
fa
f8
0b
fe
04
12
1a
f0
10
07
f2
f0
fa
02
f9
ff
f7
0d
05
e4
fd
03
e6
de
0f
e3
f3
e9
fd
05
f4
04
fc
f9
e9
16
ef
ef
fa
ff
fa
05
e9
f5
f9
fb
f5
fc
e2
f5
05
10
05
03
f7
01
01
f3
08
fe
f7
fa
f7
fb
f4
f3
03
00
09
09
00
02
f8
04
fe
f6
f9
fa
fb
02
ed
f2
ee
06
fc
ec
fd
19
ea
e8
ff
f4
f7
fb
02
e7
fe
08
f9
f6
e8
f8
f1
ff
fc
f5
fb
07
ff
f9
04
0d
eb
00
e7
02
04
f4
f7
07
f8
01
ff
fd
ed
0d
f3
0a
fd
01
07
0f
09
e2
0a
fe
f7
f4
f2
11
ff
ff
00
02
10
f5
fd
f9
fa
06
05
f9
fa
01
1e
05
f0
fe
ef
0e
01
ff
e9
ea
10
fd
ff
ef
01
04
fc
02
07
02
ef
f3
0c
f9
03
0b
ea
15
0d
11
f8
08
ec
08
01
f4
0b
ef
fe
ff
0b
00
f0
0d
f5
e9
fe
ee
fb
ff
04
01
fe
02
17
fb
11
eb
06
fe
08
11
e9
fc
f1
e9
fb
0b
09
f3
ec
02
e1
ee
0b
07
f8
05
11
0a
05
ed
0c
00
f9
fb
e0
fa
f9
f7
03
f8
dc
f8
0d
00
05
f9
02
f7
02
07
03
fa
08
e9
f9
02
eb
05
04
f5
05
0a
0e
08
04
14
fb
f6
fa
02
16
ff
fc
12
f6
f8
08
05
fd
0e
00
f8
12
00
08
03
f1
15
00
f0
02
f8
07
f5
fd
0d
01
01
f8
1c
09
13
e8
02
f3
03
05
0b
f6
05
f8
f9
e9
0a
0d
fe
06
17
01
fa
12
f4
0a
f1
05
fc
dc
f1
da
c5
ef
f8
f2
02
00
fd
09
f4
0a
f5
ee
e2
00
0b
e0
eb
04
ed
f4
ec
fd
0a
f7
f7
02
ed
15
fb
12
08
ed
09
0a
f1
e6
0d
f9
f5
ee
00
f8
0a
f4
09
07
02
0e
f0
e7
07
fb
ec
ff
fc
10
e5
02
f8
04
07
ea
02
0f
08
f8
f8
06
07
00
f2
0b
02
05
03
e8
02
fd
f4
dd
ef
00
fa
10
f3
06
0b
ed
e9
ea
f1
07
f9
f2
f5
09
f8
0f
05
fe
e2
fe
05
0b
ee
e9
ec
ee
ed
f0
0d
f6
fe
ee
f1
fd
f5
ef
f9
04
f2
10
00
00
f9
f6
07
f8
04
f6
0b
02
fa
08
04
f8
ff
0d
02
13
13
07
0b
ff
11
f1
fb
0c
f5
08
fd
eb
01
fa
f8
f0
05
09
eb
f5
04
f5
fb
16
01
fd
ff
eb
ff
fc
e9
e9
06
05
0c
f7
ee
09
fb
05
ee
fb
de
f4
fa
0f
f9
f8
f9
11
fe
02
06
01
03
fc
08
01
ff
ea
f6
eb
03
ee
14
fd
ec
fe
f7
f2
f2
07
f3
0c
e3
0f
fc
07
f1
06
ee
0b
f1
04
13
f5
f1
e9
08
fc
02
f5
0a
06
08
00
14
06
06
03
fb
16
02
0b
ea
06
0a
13
06
09
f5
fa
fc
ff
f6
f5
05
06
f2
01
f1
02
ff
f4
03
e8
00
fe
0b
02
04
01
0d
e8
04
00
f6
0c
f7
04
fb
03
07
ff
f9
f3
fe
fd
00
f5
ff
06
f7
15
ef
0c
e4
f2
06
f6
01
11
04
00
f4
0b
ef
16
eb
0f
eb
f2
fc
e9
f1
f1
fa
ff
f5
fa
e7
f3
11
f6
08
0f
fa
fe
05
fd
fd
f6
fa
e3
f4
fb
e8
2f
fe
f2
fb
0f
03
f8
f9
fb
01
ec
fd
02
fc
eb
e7
fa
05
fe
05
0c
ef
ff
05
e1
06
e5
fa
d9
0f
e3
f9
14
f6
01
00
00
02
f3
fc
fa
03
0f
02
05
f4
f1
07
fd
fe
01
fa
05
05
ec
f5
e0
e9
d3
15
f2
fd
f4
06
f0
e6
ff
0a
fc
06
17
fc
01
17
0b
fb
03
fb
00
0f
fd
ec
ec
0a
10
f6
db
fa
ff
01
0a
0a
f4
fc
01
fe
f7
00
15
fe
0e
14
ec
03
04
f1
f8
ff
f9
fc
ff
e2
03
05
f7
04
1e
f5
fd
04
13
0b
f2
07
e9
fe
0e
f5
0c
fa
09
02
09
0b
0b
01
0c
0c
0f
fe
01
05
04
03
0e
f7
f9
02
10
15
d6
03
f5
0c
07
02
05
f9
e3
f8
f3
04
02
f1
ff
0a
f2
cc
f5
f7
f3
0e
ee
f0
bc
e1
1f
ff
07
f2
eb
fe
05
07
f5
05
f6
c9
df
f5
e4
fb
e2
e9
ef
08
fa
03
fc
f3
0c
02
f7
0e
f9
f7
f0
fe
d6
00
13
00
07
f2
03
06
0b
f0
ec
08
fc
06
f6
04
05
f3
15
f3
0a
03
00
eb
06
0e
0f
f7
f6
00
ff
f7
09
ed
09
f6
0a
05
ed
f1
06
12
10
08
03
ef
ee
04
ce
0f
0d
f5
12
10
0f
df
ff
ec
ec
f7
e8
f9
04
f4
06
0b
f0
f9
f1
13
fe
f4
fd
05
f4
ec
eb
fe
09
e0
0a
f7
fd
04
e6
f1
f0
f6
09
0e
09
f3
fe
f0
f6
fe
01
e9
0a
0b
fc
f6
0a
07
fd
02
04
f3
00
18
f7
fe
fd
e9
05
0e
fd
04
f6
fc
fe
07
d9
02
01
fc
06
fd
12
f8
ed
f4
0a
f6
03
ee
fe
f5
fd
ff
f4
f5
fa
06
04
ed
fa
09
15
fa
11
fb
00
06
09
fe
f7
04
00
0d
e9
00
07
03
0f
f1
f9
0e
fc
02
03
11
f4
fa
00
09
ea
06
0d
0b
08
f4
ff
f7
01
0a
e7
f3
f3
0f
fe
ef
ff
06
ed
0a
14
f2
02
fb
04
0c
08
ed
05
f1
fb
02
07
01
15
f3
fa
ff
04
05
00
fe
03
ef
f3
f4
f5
f4
fd
fc
eb
f5
01
01
ff
f5
ee
f0
0a
fe
08
fe
f5
15
fe
07
04
f5
0f
04
ef
fd
fb
01
06
02
08
ed
00
0b
fb
00
0e
02
f4
f5
0f
07
ff
0a
06
f1
0b
0d
0e
fc
ff
fd
fd
0d
fb
0f
16
f9
dc
fd
e8
16
f6
01
03
fe
0b
ff
fd
f2
16
f1
ff
0c
10
eb
06
f7
f8
fa
ff
fe
f2
f2
f6
04
fc
12
f7
02
f6
05
e5
fa
12
03
f8
fc
00
07
f3
fe
f1
06
f1
e5
08
07
fb
fa
0d
fa
f4
f3
0a
09
04
fc
f1
06
f8
06
ff
00
e6
f7
04
05
fd
f2
f9
ff
f8
e8
08
f5
1f
00
f4
e3
f1
fd
ed
03
09
f7
18
f6
fc
fc
06
05
06
ff
16
10
0a
e7
08
f2
fa
f8
e6
f4
02
06
0d
ef
e2
09
02
fe
fd
fd
08
fb
05
ff
fa
fa
1a
ed
02
04
fe
17
00
f9
06
0a
f4
ec
fe
ee
fb
fa
06
f9
f3
f8
05
e8
07
f5
f6
e9
0e
fd
0a
f0
12
f8
05
03
f9
ed
ec
09
ff
f6
0d
e7
f9
01
05
11
14
fe
0b
0c
04
04
f4
f6
f9
0b
fa
08
f7
e7
ed
06
e9
0c
fa
0e
10
12
fd
16
f3
f6
f5
04
d3
05
98
08
fa
e3
05
0b
ff
03
03
f9
fb
fa
ff
e4
fb
ec
c5
f1
02
05
f0
ef
10
08
e7
0a
fa
e3
ee
e2
04
04
fb
f8
05
04
06
18
f2
07
fe
fd
05
e9
e7
fe
f9
ff
00
e8
fe
04
04
06
09
eb
00
02
03
14
fd
00
dc
f1
ef
fe
f3
15
e0
08
06
06
02
f8
0a
ef
f1
f9
0a
f2
da
ed
08
fc
01
da
0f
04
f4
fe
05
05
0f
dd
e7
f8
ec
fc
08
e4
18
02
f8
04
e2
05
f2
1f
f1
01
fa
02
07
0b
00
e8
11
0e
05
10
ed
0a
02
06
07
14
fb
f1
f6
f0
fc
0e
06
f8
09
0c
23
0f
14
e4
0d
dc
fc
1d
f3
fb
03
00
f6
09
05
f8
02
f5
d9
f6
f3
f7
eb
fe
08
fd
10
0b
ef
03
03
f5
e6
e3
f8
f3
04
fd
02
fb
17
09
09
f0
e7
fe
0c
e9
09
0b
02
fd
fe
1f
03
fa
ff
fd
f8
12
ff
fa
0e
f7
f8
ff
12
dc
e7
e8
f1
0d
ff
fd
0d
db
ef
03
ea
09
fa
06
0c
01
06
ee
f4
fe
08
ea
f9
fc
06
07
fb
fb
fd
0d
06
fb
f0
f7
0c
0e
fd
0c
00
0c
04
f7
00
f0
07
fd
e3
e7
ee
15
07
f9
fe
ea
ec
0c
0c
f8
04
f8
eb
f9
f1
e5
f6
ed
ef
fd
f9
f7
13
f1
e6
f8
f2
ef
f2
ff
08
0a
f7
00
f2
0f
05
0e
09
fe
fd
ec
ec
f2
fc
0e
e8
00
0b
02
1b
09
02
e9
fa
f7
00
f7
06
0d
0f
f3
ff
ea
fc
f0
03
07
ee
00
f4
0c
0d
0d
01
f9
fd
ff
05
f7
20
f0
01
16
01
13
e6
06
ec
fe
fb
ed
fd
07
0f
ee
fc
ed
f5
f3
f6
00
fb
f1
fa
05
ef
04
fd
09
ec
02
fe
09
ef
df
f8
0a
fd
00
f6
06
f4
f2
eb
e7
ff
f4
ed
0f
00
f9
fe
00
03
fa
fe
f4
f7
0b
0a
e8
02
ff
fa
fb
03
f8
fa
08
05
04
f8
11
f3
ff
fa
16
de
f4
fb
0b
00
f5
f1
00
da
fd
0f
f2
04
05
fb
09
fd
e6
02
fb
fd
01
08
f5
f9
03
ef
f3
fe
f2
f6
f9
fe
f6
14
f1
03
09
0a
17
00
f2
f1
14
e9
0f
ee
13
f8
f7
f7
10
f5
f4
fe
02
fa
0a
e8
fd
01
fa
20
07
fe
ea
e1
fc
e4
01
fb
f4
f8
0c
03
f7
04
f5
10
f4
0e
ed
f5
09
03
d5
de
f9
00
fc
01
05
ff
00
0b
b9
fb
02
0d
00
04
fc
e0
ef
09
08
f4
0f
eb
e3
00
ef
07
09
f8
dd
f8
f3
ea
df
0b
e8
fa
e9
d9
0b
da
f7
f8
e7
f7
0a
f9
01
f6
03
e2
03
f7
e8
e6
f7
fc
04
0a
05
ef
0c
15
ef
05
fb
ce
07
ff
f0
ef
00
0d
e6
01
05
09
f8
ea
e1
f7
f3
fb
fa
f1
0b
0b
fa
0a
fb
0b
f7
0b
f6
04
01
eb
fa
05
ea
13
00
f5
fa
ef
00
ee
fb
0b
0d
ee
f5
01
11
12
f7
f7
f7
f5
df
e9
f2
f4
ee
ee
10
05
12
ff
0c
e5
fa
d9
04
fe
fb
09
10
03
09
f7
f2
f9
ff
02
e3
fa
02
03
fd
fc
09
f7
fa
06
d6
02
e2
e8
12
f0
01
09
1e
0a
f7
ed
f9
06
f4
fb
f4
f6
ef
09
00
f8
00
00
f8
0a
f7
fd
fd
fd
fb
fb
ef
ea
f8
ea
ff
f9
06
04
0c
05
01
03
f6
10
fc
03
08
09
f5
03
f7
09
07
fd
06
0a
f9
ff
0d
04
f1
f6
fa
04
f7
05
02
05
f6
f1
fc
07
e7
fb
0f
fa
fe
e5
0e
e3
f8
ed
02
05
f9
fc
ee
0d
10
0d
f0
f1
17
fc
f7
ff
f4
f0
f6
06
fb
f6
13
fb
05
ff
02
14
04
d0
d9
ed
01
07
eb
06
f9
04
fd
f6
f5
f9
19
03
0c
eb
f9
00
01
fe
08
00
00
05
0e
e3
01
08
f9
08
e6
f0
f3
03
0e
ee
f8
01
0b
0f
f2
fb
09
18
06
fb
06
09
09
16
17
ef
08
0c
06
04
eb
f8
ff
0e
00
0a
01
f8
fc
03
05
f7
0c
f1
0b
f6
09
ef
fc
16
fa
04
02
00
f8
fc
f3
13
fe
f8
09
01
04
ef
06
f6
0a
f5
00
07
01
eb
fa
0f
ff
1a
e7
02
04
fd
f9
05
09
0a
14
f4
02
f7
ee
f6
0f
e8
03
07
fa
ff
fd
d3
1f
f4
f4
fe
02
fd
f1
e0
08
0a
fa
ee
fa
01
ee
f7
0c
fc
e3
de
fb
16
14
01
fc
05
07
f7
e9
f4
0a
f9
fe
fb
06
0a
fa
09
ec
02
e8
f6
08
03
f3
0d
f3
01
09
fc
fa
01
fa
fa
02
f5
fa
10
05
03
05
14
f3
ff
00
07
fb
fd
f4
fd
fb
f9
e9
fa
05
04
f2
05
fc
09
09
dd
03
dc
ef
08
09
0f
f7
0e
0d
0d
09
09
06
00
ff
00
fe
11
02
10
fd
f9
fa
ef
f7
ff
f7
06
0a
f7
f9
0b
eb
0c
03
10
02
ef
f9
e6
fd
07
0f
16
09
ef
f9
00
ca
07
f7
fe
e0
bc
07
bc
07
f5
16
04
ee
07
06
f9
e7
10
02
07
d7
0a
01
ca
fc
fa
ed
f0
0a
12
09
f3
f8
00
d6
d6
ef
01
fb
ee
f3
00
fb
f9
e5
ed
05
fa
f4
fd
fb
fa
10
ef
1c
08
fa
01
f3
fd
fe
ee
f2
f7
fb
03
0e
fc
12
e0
06
ea
fb
ef
05
e0
0d
0d
01
ff
04
03
10
f7
f3
fe
f9
e7
04
00
0f
0a
01
09
fc
fc
fd
ef
f2
08
df
de
ff
d6
0b
03
05
06
20
db
f7
f0
e6
f3
00
0b
ee
fa
06
f1
f7
f2
09
f7
f7
fe
ed
fd
01
f3
06
0a
e5
f1
e6
ef
e2
fc
f5
06
0c
0b
10
ff
f4
04
e1
f2
f3
e5
0c
f2
08
00
0f
e3
01
cd
08
f1
ed
f1
0b
f9
01
f0
0b
07
f5
04
16
f1
fd
19
f0
fe
ed
0b
e4
fa
04
07
21
f1
01
f7
fa
f5
04
09
01
03
02
fd
ff
0e
f6
05
09
03
fd
fe
00
0a
03
fb
0b
00
14
09
fe
02
0b
08
fa
fc
0c
09
07
fa
f2
fe
03
f4
04
04
05
fd
f6
01
fa
04
ef
f5
03
0f
0a
08
f7
04
04
1a
fe
d0
05
04
0d
f6
04
fa
07
f5
ea
f4
fc
03
03
fd
db
f8
fe
fd
ed
fc
fe
f2
f3
09
e6
fa
0a
05
fe
fb
f3
03
f7
f7
03
fc
07
06
0d
eb
f4
f8
fe
eb
f1
f4
f6
fe
01
f7
0f
05
f8
06
fd
fe
07
09
fb
f5
17
05
0b
21
0d
ee
fa
f9
06
03
fb
01
f8
15
fb
ec
fa
d7
f8
fb
f6
fa
e6
04
fd
f9
00
00
09
1d
eb
fb
f3
06
ec
f7
02
08
fc
f7
29
0a
f8
fc
1a
fe
ff
0d
18
f6
0d
ff
ee
0a
ff
12
09
df
e7
03
fb
e6
e4
ec
f4
f8
e9
20
d3
ed
07
0b
0b
f2
fb
00
08
f9
01
fd
0a
ed
f6
f3
e7
0c
f7
00
fd
f1
14
19
fb
08
fb
fc
11
ef
f8
ee
f0
17
24
04
f3
f1
00
f4
f9
fb
ff
fc
0c
09
fc
fd
01
ff
cc
ed
f8
f3
dc
16
02
f8
0a
dd
06
03
f8
07
ff
e6
f2
fe
13
12
0d
f9
07
e4
f4
ea
09
ed
f7
f7
07
03
04
f6
06
0b
06
06
16
f6
05
08
d9
fe
fe
fc
ef
01
03
fc
10
04
f9
ec
c6
f9
f9
02
0a
10
1c
1f
0b
e8
f0
f7
0f
05
04
07
04
fa
fd
fe
05
e9
08
09
02
f6
fb
de
0c
08
15
fc
fb
f2
00
ff
