11
00
f5
18
ee
0c
fc
12
e1
06
19
08
f4
fb
05
09
f3
fa
0d
ec
05
fd
ff
ee
1b
fb
12
d2
1b
dc
f1
04
ed
ef
09
f2
1a
d7
fa
f3
1e
0e
0b
10
03
01
09
e8
03
14
de
ee
eb
09
08
1a
f8
20
0b
e9
29
e0
d6
11
07
e7
ed
fa
13
e9
e5
1f
e2
04
ee
1d
08
f8
eb
fd
f7
08
0d
f8
eb
fc
13
23
08
fb
16
f2
07
e5
ff
0a
e4
1a
f2
05
0d
0b
06
fe
07
0a
1d
09
04
ea
d5
28
e3
14
05
fd
da
f6
18
0a
05
eb
eb
18
fb
f9
ec
f9
05
0e
14
f8
ca
eb
04
dd
fc
15
10
e6
0b
da
fd
04
df
f1
18
06
1b
eb
26
04
11
f1
fe
de
18
ef
f2
0a
eb
11
0e
ec
f4
0e
fc
f2
ff
ff
e9
19
f1
11
09
11
f9
f5
1b
f8
f1
e2
0f
1c
13
2a
1f
ea
17
e5
eb
13
0c
07
18
fa
0d
fc
1b
ec
0a
da
1a
e3
15
10
f7
00
fb
09
19
f8
f9
fc
f6
1c
e3
10
f5
ee
35
09
d3
fe
e7
ef
f9
f6
08
fa
ed
03
08
f1
10
e2
0b
f8
10
1f
26
f2
05
e2
e4
e2
16
fe
13
f7
13
0f
f8
11
04
25
e6
16
f7
fe
ed
08
14
e1
24
ee
0f
f6
21
da
15
ef
06
05
0f
06
2f
e9
ed
06
17
10
f6
f3
10
ef
c4
fe
08
02
11
15
04
05
0b
cf
18
1e
e6
06
ec
ea
2b
ff
02
eb
24
3d
fc
02
01
17
0d
03
2e
fc
2c
f2
ef
f0
16
fa
f9
16
f6
eb
01
d2
12
13
ff
1a
03
21
ff
f5
1b
1d
0a
0b
24
09
10
11
f3
05
e2
00
20
fe
f6
ec
d5
fa
ea
13
f2
fc
ed
10
14
07
e4
0a
10
05
f8
ff
ee
fd
04
ed
d4
f9
e8
fb
e9
df
04
24
0a
ec
1b
f4
f4
fa
16
fc
1d
07
00
ed
03
f1
08
f0
05
fa
c2
16
2c
00
f8
0a
00
d0
d7
e7
cb
ee
0c
01
1b
e9
e1
fd
fc
11
17
06
f7
1b
f7
f9
02
fc
f8
f1
ff
df
1e
e0
fb
0d
16
e5
e9
da
1a
12
ea
12
e7
d1
1c
fa
f2
14
f3
11
09
ed
07
e4
1d
02
da
ea
05
09
06
eb
ed
f8
0e
fe
0a
11
01
02
06
ef
f6
20
f5
08
14
0d
f7
1b
c5
14
04
ea
e1
f9
0e
f6
15
00
f8
eb
0f
04
de
0a
fb
09
0d
02
1e
0a
14
0b
1a
21
fd
1c
f7
14
03
f3
f5
da
ea
06
0d
f7
03
16
e3
13
e9
04
14
0f
ff
02
0a
fa
f8
e9
f9
d3
fc
03
12
12
00
1b
0a
10
f3
ff
0d
e3
0b
f7
03
ef
f6
d8
0f
40
f7
0f
fd
e1
0b
ff
0e
ce
37
04
fe
e5
1e
13
de
01
08
ed
05
07
02
2f
0a
f6
fd
0c
02
11
fc
00
ce
e5
20
e8
21
ee
10
04
04
f2
17
08
ce
f4
11
fe
de
dd
e7
da
0b
2a
fa
02
01
dc
07
0a
e5
f0
eb
12
ff
1c
08
f9
02
07
f7
1b
e1
27
17
f9
e6
22
09
fb
e8
01
de
e1
f2
0c
0d
1c
1b
d9
06
f9
0c
e2
eb
ed
f3
fa
fd
e5
09
0e
03
00
10
f9
14
ff
fc
fb
24
0f
e0
e4
eb
13
0e
ff
20
1b
de
31
e0
35
e4
09
dc
ea
13
1c
e5
f0
eb
e8
02
08
fb
e7
1f
4b
fd
f0
fe
fc
ef
0d
1d
f0
28
0f
f4
17
f0
f2
0f
fc
f7
0d
0d
d8
f1
ff
e7
ef
f9
06
e0
1e
22
cc
12
0d
e4
07
24
0c
ed
08
fe
14
1a
0a
f8
02
fb
e2
f8
fc
f8
f4
ff
eb
19
f6
ff
01
08
f5
16
1e
f8
f4
26
08
19
06
f4
cf
01
f5
f6
e2
fd
e1
fe
24
0a
f4
f1
00
04
00
fe
1c
0a
ff
19
f3
19
1c
21
13
11
0a
14
10
00
f7
01
08
f9
fe
f6
f7
f8
05
1e
e8
f8
ed
e1
04
f6
1c
fa
fe
01
11
07
14
03
ed
07
fc
f4
0d
12
f0
13
fc
fd
01
e6
f9
05
00
12
36
fe
e7
0d
0c
f5
00
04
10
17
09
fe
f5
20
df
08
f2
e8
f8
29
e3
06
d4
17
e5
0f
0f
de
18
fd
de
1c
0f
09
ec
0a
0d
04
fb
fc
15
2c
0e
f2
04
ce
02
12
07
f6
00
f9
13
0b
f2
14
ee
f6
13
16
09
d8
13
02
0d
06
e0
19
bd
09
ff
1b
00
f9
15
10
03
fc
01
11
f5
09
ef
ce
05
0a
09
29
fe
31
e6
02
fe
01
eb
06
08
1c
e6
ec
06
02
0d
ef
17
1d
28
11
f6
df
0e
0e
e4
f0
00
0b
05
2c
06
ff
e8
02
d3
05
05
15
f6
1b
16
01
fd
0e
f0
f9
ff
05
18
ee
f1
e9
fa
01
fe
eb
01
f1
e8
df
f6
2f
e9
e9
ed
05
ee
09
2c
f6
e7
05
f7
f4
df
f2
f5
08
f1
04
f9
fd
10
00
1f
e9
f3
fa
0b
07
02
05
11
17
f4
09
21
ff
fc
0c
1d
0b
1d
07
06
12
05
00
bf
fa
14
f5
cc
14
11
e3
1d
ed
ef
fa
1a
02
d5
1c
f6
01
04
f5
f4
f4
e3
f4
18
e6
f4
0b
0d
da
ee
f7
01
fa
10
ff
0b
c8
14
0e
fd
e9
02
ef
ea
0e
07
08
06
ff
32
23
ce
18
db
17
08
2a
0d
23
27
ee
e2
da
1f
24
11
f8
f3
08
1f
1c
d8
2d
db
15
e6
02
f7
19
07
10
1e
f3
fa
06
05
fe
f2
f5
f2
1a
d1
e3
0b
07
e5
f0
f7
1c
fd
1c
f3
fc
f9
03
0d
12
24
f7
35
f1
fa
1c
05
0b
0a
10
df
ee
fb
19
05
07
07
0c
ed
