3a
ad
e2
d4
d4
09
e8
e4
27
ac
f8
29
2c
dd
1b
f4
c4
ba
24
98
09
45
ea
0c
05
dd
c4
1d
1d
14
04
0f
01
13
f5
80
3c
20
03
f6
1a
b8
14
0b
d4
ae
e1
17
20
0a
e9
f5
eb
0f
db
18
1b
c7
3b
d8
0c
16
c5
4d
eb
fd
1e
fc
be
ec
e4
bf
0f
30
ed
fc
19
b4
22
cc
d0
41
18
e2
9e
02
b1
03
f9
17
1b
f3
13
b0
2b
cd
0f
2e
e3
e6
f4
f6
cd
e3
10
ea
e7
67
e6
0d
fa
29
22
18
19
07
a6
07
da
17
33
f9
eb
9c
21
29
d1
fc
02
c3
1f
08
10
35
f9
15
27
21
93
14
e8
f3
04
03
d6
38
e8
fc
f3
cc
cf
4e
f1
dc
17
d7
07
e9
e5
f1
47
f9
b4
db
34
eb
fa
36
12
bc
b7
eb
21
f7
e5
fe
dc
42
d5
1c
38
07
e6
e8
02
f1
dc
aa
18
fa
1e
f9
f4
10
fc
ed
2e
a5
0f
fa
1e
d7
24
b2
c3
f4
0e
92
f4
1e
2e
03
ff
c8
1f
1b
b7
ea
0e
06
0c
c0
d7
e6
2d
fa
22
d8
2e
f1
80
e6
f3
20
0e
1c
00
c3
21
f5
eb
db
ad
c3
d0
1f
38
c2
13
00
b9
e1
f1
dd
da
cd
d7
e3
e7
d6
5a
44
80
0e
13
f5
e8
d1
04
1e
1d
ce
2a
11
eb
ed
22
ee
e8
c0
cc
02
22
09
f3
cd
f2
32
