1b
f5
14
17
01
f4
14
12
13
f4
fb
0e
f6
03
05
1d
e7
ef
10
f7
12
f6
e5
01
ea
f8
13
f4
05
f4
08
fe
e3
23
d2
28
0a
11
e8
da
07
25
17
f3
12
11
d5
eb
25
eb
11
0f
fe
ef
19
f0
0b
fd
ec
24
f7
ee
12
0b
e6
0c
ec
1a
0d
07
f3
ef
04
04
0c
ee
19
f5
fe
12
18
1c
08
06
23
0d
f3
d8
ea
03
e7
fa
09
11
09
01
f9
14
07
ff
f6
ff
f0
05
e9
f9
06
05
fc
fe
f1
02
f9
47
e1
27
1b
39
2e
fe
36
52
23
fc
39
32
ea
0b
ff
20
f8
0c
0a
1a
f1
f8
f8
05
fe
eb
07
ff
eb
ec
d9
ff
eb
ed
01
0c
d4
fe
10
f7
19
e0
14
00
f7
e7
e4
16
da
0b
16
00
dc
e9
f2
f1
f9
f3
15
00
d9
f2
b7
f7
f0
1c
09
22
c5
0c
f6
f7
29
c5
3c
12
e6
fe
b2
a2
53
37
75
b8
9c
52
1f
b7
35
99
34
7f
06
c4
bf
27
d3
06
05
46
dc
cb
fa
10
2c
b1
51
04
e5
f3
fb
03
04
22
17
00
f5
02
f3
01
0b
ec
fd
07
f7
ec
0b
07
02
06
f0
07
10
f3
f8
03
ef
f9
f8
f4
c1
1b
18
09
00
fc
e5
ff
10
00
07
13
0a
14
f9
f0
fd
24
0a
25
0c
03
00
f1
ea
f8
03
26
e4
fe
02
24
e8
f8
13
f8
38
14
1c
f0
ef
db
f8
d3
0d
f6
06
ef
27
1b
24
08
07
13
01
f7
0d
0c
00
1d
f0
ff
e9
0a
fe
0e
fc
f3
10
17
0d
04
fb
0f
e3
f6
03
ff
0a
05
11
07
e8
ff
01
17
29
f2
e3
00
08
f7
fe
e2
1b
03
fc
00
f6
0f
f5
00
00
ff
09
f7
fc
07
ea
ff
fc
f9
ed
ea
06
fa
04
0a
fd
fa
f6
fa
f7
e7
fb
ff
0b
fd
f4
03
f3
03
f3
01
f0
18
11
05
11
f6
1e
1b
05
f8
19
0e
e9
04
02
f6
fe
00
e3
04
f9
f5
07
e7
09
08
19
e3
bf
22
e0
fc
f4
4e
db
d1
f8
01
2b
be
49
f9
f6
04
f6
22
f8
e7
10
21
fe
e3
26
2a
f8
f2
2c
25
f1
fc
17
f5
02
1f
0b
f7
02
0b
0b
ee
0f
18
03
e6
18
20
c9
08
f7
d5
e8
0b
f8
e8
0b
18
11
f1
ef
05
07
eb
13
f2
01
0d
f1
f4
ff
18
0a
f4
e6
21
e5
fa
f3
0a
05
13
f4
15
13
f5
f8
28
fd
18
02
0e
fd
0b
de
00
07
f7
1f
f9
f8
1c
12
0a
11
ec
10
e3
14
0e
fc
01
e2
fb
f4
fc
03
ff
f1
e8
f7
04
fc
e7
01
f9
01
ff
f7
04
00
28
11
05
05
03
ed
f8
03
f2
12
06
f6
fe
04
22
df
07
22
1e
f0
0c
ed
21
0e
dd
05
0a
ef
e4
1a
04
19
0b
24
e2
f8
23
f9
e4
07
0f
ee
ff
ef
11
08
03
17
00
16
d4
f0
03
e6
e3
19
fe
fb
e5
17
1f
e6
1a
e5
f7
ec
10
0a
e3
21
15
0e
ff
14
17
01
00
1e
09
0f
14
0c
0a
dd
1d
e8
00
02
da
fe
f5
f9
09
13
ed
f2
f8
14
e7
ed
fa
09
f5
da
e4
0d
f3
fa
ea
1a
0c
11
32
06
f9
fe
18
05
15
08
1b
f1
07
f1
19
21
ea
e5
ee
f0
fd
05
f7
f6
fb
15
f8
19
06
e9
09
06
c4
0c
ff
09
09
d7
a9
e3
c6
21
fd
19
f7
15
fd
c7
ef
30
1f
1c
bc
b2
ff
ed
c6
18
c9
42
24
e6
cc
ed
11
ff
0d
08
28
f3
f6
20
04
27
01
29
00
1f
22
f7
ea
0f
fb
0a
fc
f7
06
f0
fa
0e
01
f6
f3
02
0e
d7
03
f5
fa
08
f7
f3
0c
0a
fd
14
fd
10
03
fb
d9
1a
f9
06
15
f4
f9
10
09
06
04
ea
16
f9
f5
02
1f
fd
ee
03
fa
f1
04
f6
00
fe
e9
03
04
ec
ed
01
06
f6
e8
11
f6
e9
03
0d
fc
f8
f6
19
27
fa
fc
2e
3b
10
0a
07
01
02
f3
0b
04
0e
02
fd
09
0a
f6
0b
08
04
11
00
1d
01
01
02
10
10
06
d3
01
f0
12
db
da
21
17
f1
16
eb
12
0b
08
09
dd
1f
00
0d
fd
fe
19
f3
fb
04
15
1b
fa
dc
ff
01
f5
f6
c2
09
ea
dc
e7
06
f2
0c
03
04
01
f5
03
f9
df
02
e8
f6
f5
fd
f6
18
f8
cc
0b
f1
f8
ff
1b
2e
f0
ec
fd
28
f6
f3
01
06
00
0f
fc
09
f7
f6
11
f2
ea
0b
05
0e
f4
ef
07
1b
1f
15
14
04
fb
f6
f2
06
f7
ec
0d
0f
0c
05
f6
fb
0e
14
f4
0c
0f
13
0e
e2
00
09
f2
28
07
fe
fa
e9
eb
08
03
f9
0b
0f
f8
06
fd
09
f0
0f
08
e8
fe
1a
ff
f3
09
01
11
1b
0c
f7
17
07
21
fa
03
07
04
dc
0c
ef
16
10
13
dc
f7
ee
09
23
e5
10
09
ee
e7
06
dc
13
f0
f2
f2
f9
09
02
da
fc
06
10
eb
0d
21
28
38
15
01
ff
f3
f1
fd
dc
0e
fc
ed
f4
f6
f8
06
04
1d
fb
18
17
f5
e0
0b
09
0d
1c
15
0c
ff
01
ff
f4
0c
f6
07
15
02
f8
0a
f0
07
09
03
13
16
f2
ed
f5
0d
e6
fc
04
19
f7
f9
1a
06
f7
d5
0e
0d
df
eb
0b
fa
08
08
1a
07
f9
13
0c
06
0d
fc
fc
01
f8
f1
08
10
13
0c
2e
0c
17
02
1c
07
ff
fc
13
12
07
12
fd
d6
12
10
0b
ed
ed
1c
f9
cf
14
1d
f3
eb
00
12
f9
c6
0c
06
0c
e6
da
00
0a
f7
0c
17
fc
fb
0e
f8
13
13
db
f4
12
18
ed
f3
1c
00
14
ef
13
f3
05
03
03
01
01
25
0c
f0
f5
11
f9
15
fc
02
ff
10
04
ef
ee
16
03
09
04
29
e1
e6
ec
02
13
cd
14
f1
f1
ff
03
f2
0a
fb
ff
eb
f0
fa
19
f4
00
13
f2
e8
f4
0c
2c
43
d9
fb
c5
17
15
e5
d5
28
dc
14
fe
df
f3
ff
ed
e2
10
ed
f1
13
01
f8
e6
d7
1d
0f
df
df
11
08
10
06
fa
f8
e2
02
f4
00
04
fd
01
f9
06
f9
0c
04
f3
ea
20
20
1d
f2
00
fe
0f
fe
f4
03
08
0d
f7
01
10
04
f3
2f
1c
fb
fb
fc
fe
0c
f8
fa
f7
fe
d6
fa
13
f8
32
07
0a
eb
07
0a
05
fa
12
11
e2
ea
22
1b
2f
16
02
fc
f4
2e
28
f0
0d
05
0f
0c
0c
f8
e4
0a
14
05
fe
01
f5
e9
00
02
fe
e9
f3
1e
ee
e8
18
0e
df
19
fd
fa
06
05
fc
fa
13
f8
00
f9
2c
e6
17
18
f8
11
01
fa
ff
08
16
02
ef
12
01
14
f4
13
d8
f7
f5
e8
05
f8
f9
0b
ed
e1
f3
fe
00
f5
fb
f7
e6
f3
08
e2
16
e8
f8
e6
0d
0a
0e
fb
ed
f7
f5
1c
fe
e7
ea
01
03
e7
f2
09
08
d9
f7
19
29
10
ee
f9
05
23
0b
f0
f4
db
f5
f5
f5
02
09
fc
ed
fa
01
0a
f2
0a
fa
fb
02
08
14
e5
f6
2a
09
0f
fd
0b
f9
10
f8
0f
fd
e9
1e
05
0b
10
f1
ee
f1
d6
05
ec
f6
e3
14
ef
f7
07
07
e6
eb
1a
00
f7
fa
dc
09
f1
0b
fe
09
08
e8
15
07
03
00
fc
e7
eb
f3
f6
0e
fe
ff
03
fc
ee
fc
12
f4
05
06
0b
f7
d8
f4
1e
12
e8
02
fe
de
e4
03
fc
04
eb
fd
f0
0f
0f
f8
eb
ea
21
ec
14
21
18
0a
0a
fe
20
08
eb
0f
f3
01
02
ed
03
f7
fb
eb
13
06
f4
fc
01
f7
fd
09
e6
f4
05
0b
f5
0f
10
dc
1d
02
01
06
16
0e
fb
05
f2
08
0e
e2
03
ff
03
03
f2
02
19
02
24
22
27
e4
e7
10
2c
24
d8
20
13
05
0c
ec
e9
f2
ee
e6
00
0b
fd
10
eb
05
09
fd
f5
1d
1a
f7
f5
14
09
ff
ed
f4
10
01
fd
0b
e8
15
02
fb
04
f6
e9
01
06
05
21
f7
01
dd
da
17
fe
ff
e4
05
16
fc
df
fc
fd
f2
e6
f5
0d
e7
fa
01
11
f3
f9
0b
10
1c
06
f6
16
0c
07
f1
19
04
fe
f2
fc
f1
ea
0c
0d
fb
0e
ee
14
11
fa
f0
ef
f1
05
02
eb
02
0a
d6
f5
12
ff
19
0b
fb
07
09
f8
ed
f0
f0
fa
18
f3
fe
f4
08
ff
03
05
0f
13
09
f4
1d
ff
01
08
0d
09
0c
eb
f3
0e
f1
f7
f2
03
0a
02
ef
08
f9
fc
f3
f6
f7
0b
0a
e6
06
0c
18
f6
eb
1e
0a
f0
18
03
fc
ec
fc
03
0d
03
00
f2
f4
f0
0c
0f
02
03
fa
0b
fc
f3
f9
ff
f3
f0
0f
ed
fb
f5
ca
11
f7
ff
14
00
0a
00
10
17
f8
03
ff
0f
09
15
e6
fb
00
0d
16
f8
08
fb
f5
f7
fc
06
23
fe
fe
f7
03
15
db
f1
16
0a
1e
fc
24
fb
f3
19
fa
df
f7
2f
03
f2
03
02
19
e7
1f
02
15
04
28
04
22
19
02
f9
e6
22
f3
eb
f5
15
08
c5
ea
01
1e
25
08
1c
37
22
28
0c
13
2d
0c
0c
1e
fc
e9
e1
17
0b
f5
01
fb
07
05
ef
f9
18
f4
0e
ec
0a
da
00
f8
da
05
c4
df
f7
31
09
fa
ed
f7
fa
f3
0b
1d
26
fc
f7
0d
fb
03
e1
05
06
13
01
dd
f2
d8
0e
07
eb
ec
f4
06
eb
df
12
1a
00
c9
03
0f
1c
f3
fa
01
04
e1
14
ed
f6
15
0c
fd
0f
24
09
0c
01
f7
f8
f3
e7
09
e3
09
04
1d
e4
08
25
27
05
11
18
e8
07
0d
f0
16
f0
09
0a
05
f7
dd
09
cf
df
fd
f7
f9
f1
f8
08
f7
ff
01
0b
f7
e1
fa
05
0e
ff
fe
e6
f6
fe
db
ec
21
0c
0d
ee
e3
06
11
e9
00
fe
f6
fd
dd
e3
01
0c
15
ff
0e
f3
06
f6
1e
fd
f4
0d
f7
21
eb
0a
19
22
ea
f2
06
fd
ed
03
fe
08
00
f8
0f
19
15
ff
20
1b
e7
f1
fb
f1
fa
eb
07
01
01
f2
09
e9
0b
14
e5
ef
12
f4
ff
0e
ee
f5
10
12
f6
0f
e6
0f
ec
e7
f1
0a
ff
db
ef
ea
fd
00
04
f4
f6
e9
0d
02
fb
08
01
11
1d
f5
15
0d
1d
ff
14
16
0f
fa
00
1b
f5
0c
01
17
c5
0b
f7
e7
12
1b
c1
ce
e8
0a
10
c6
09
01
08
b0
e6
19
06
07
fe
18
e8
06
00
24
0f
00
17
1a
07
1c
06
18
d4
11
27
04
0b
fe
f4
0d
07
fd
09
0b
f6
ee
ec
f5
f0
f9
f5
09
07
fc
e9
fb
06
fb
fd
f0
02
f3
18
19
01
07
0c
e8
03
fc
14
07
f1
0e
1d
f6
e9
e3
fd
0b
ec
17
2d
06
d7
fd
fa
24
15
e5
20
02
0e
ea
f0
0a
fa
f9
f7
f6
f3
f1
ee
19
eb
f6
ff
1a
03
fa
08
08
0b
05
23
03
10
0a
ec
f2
30
f1
1d
00
12
fd
02
e8
ea
0d
e2
00
0a
0e
ee
e2
0f
10
f5
08
ff
0c
28
12
16
38
13
eb
e3
0b
0f
ed
1d
00
23
00
fe
14
f6
ee
f7
ff
05
01
07
06
02
f8
0b
f4
fa
00
fd
03
12
06
fa
cb
fa
0d
ff
e8
fd
eb
11
08
f0
f0
2a
ef
f7
1d
e6
29
11
07
fb
f4
26
21
0d
f4
f8
1a
e1
ec
01
0a
31
20
22
f9
f3
37
eb
04
28
f9
0b
d7
25
2e
fc
e5
25
0b
11
e7
f6
0c
0a
f7
f6
0a
02
1e
0f
04
e1
e8
e8
0a
0a
23
f5
08
fc
e0
39
0f
1a
f9
35
30
02
0d
1d
18
18
e9
00
14
09
05
06
0d
16
1f
24
08
f4
fb
fb
ff
03
17
06
ef
e6
02
11
01
0b
0a
fc
fc
f4
06
f5
1b
17
1c
fe
fe
f1
ff
1a
f8
18
00
01
07
09
ef
0c
ff
0e
ef
fb
00
f8
ec
f4
02
fb
e7
0c
f8
fe
fe
f1
f8
17
fc
08
01
20
07
09
15
03
0e
0e
f7
ea
00
de
f0
06
f7
fe
00
19
fd
02
07
ff
1a
0d
0f
14
f4
14
05
0d
05
01
0d
0a
fe
00
00
05
fd
00
10
e8
0f
00
f0
f4
02
e5
fc
e0
f6
01
f7
fa
f2
f7
fd
f7
00
fe
0d
f4
02
ee
f9
11
10
fa
f4
ed
ff
ea
04
f5
17
01
14
1a
01
f4
f2
fd
03
08
d8
21
06
f1
d4
2f
f3
07
19
eb
ff
21
20
e2
ff
f4
11
f3
06
f1
04
e9
06
e4
16
05
0c
ee
0f
dd
e6
09
f9
fc
f2
f3
00
f4
f6
ee
f8
ee
0a
ea
0c
db
ff
00
06
03
05
ff
07
0e
1a
02
21
14
0d
0e
0d
0e
04
16
fc
06
01
0c
07
fa
14
f4
11
08
08
f9
00
f0
10
00
ee
f8
03
f9
f6
ea
14
e4
16
0e
fb
f0
fa
04
1a
0c
f1
08
09
ff
ea
1c
13
10
2a
f4
02
20
0e
0b
05
05
18
09
fc
fd
0e
f2
30
f6
13
11
31
0f
fe
1a
2d
1c
f1
26
18
ea
06
3f
00
fd
1e
08
0a
00
0a
0d
09
f9
08
ef
19
fe
0e
03
09
0a
08
0f
ec
08
03
0f
11
f3
03
0c
05
fd
02
1d
06
01
e6
04
12
16
05
f9
f8
0a
05
f5
07
0a
0e
24
0a
f0
0f
f5
f5
10
10
f0
ff
f3
0f
fd
0a
f3
05
08
dd
fa
d1
d0
f9
17
ff
06
ea
ea
11
f7
02
f3
15
e7
24
05
11
2f
31
04
1e
0f
1d
17
e2
40
2d
16
ee
d4
b4
4a
19
36
e9
d1
2e
28
b7
21
c7
2a
37
0b
ed
e2
05
ed
14
1e
0c
e4
ff
ee
19
07
df
01
13
0b
f7
00
ec
f8
f1
f9
ed
fd
fd
f8
ed
f4
fc
f0
fa
03
fc
f4
11
ec
03
0a
0d
f1
f4
ec
02
01
f0
0a
10
ed
f9
f0
fd
00
07
02
12
02
f9
f0
06
08
f6
03
13
f7
0d
d6
37
be
f8
e1
0e
0b
f9
2c
4a
1c
fc
24
1c
09
15
11
15
0e
30
11
eb
0e
18
f6
e7
ec
c9
f4
f0
04
f6
eb
11
f3
f8
e5
12
0a
0e
0e
05
06
ee
1b
f6
f6
fe
f5
fd
fd
0e
0e
05
f3
f0
e8
f7
fe
f7
ff
fd
f7
f3
00
ed
02
01
fe
03
02
05
fc
ff
09
f5
fe
05
14
0a
1e
ef
00
1d
0f
ea
06
15
f9
0a
02
f8
0c
15
e2
18
f9
f9
f4
10
f9
12
e8
09
bc
f0
18
03
04
f5
04
23
0f
00
12
f6
f3
fe
1d
13
02
17
e9
06
f8
16
f1
fb
02
f8
06
12
fa
0f
14
f6
f0
02
f7
10
0d
fb
16
20
f5
e5
fa
04
00
ff
f5
03
d4
f7
07
f6
04
f1
12
09
02
35
f9
0b
04
29
0c
f5
14
27
ff
ec
27
2b
e3
f2
17
ff
f5
f0
06
fa
f2
0e
07
f7
f4
0f
f1
00
0a
f6
1f
01
fd
f6
ec
07
0b
fd
06
01
f4
18
fd
ef
0e
11
07
ec
0b
01
fd
fb
05
11
07
f6
13
0c
0a
00
21
0d
0a
d3
fc
e7
ef
f5
02
14
04
ee
e5
fe
fc
0d
02
f8
e6
09
ff
e2
e2
11
0b
f9
fb
05
f5
f5
fb
11
12
fb
05
1a
fb
1f
18
1c
ee
ef
08
16
09
eb
19
0c
f4
ed
f8
1a
ef
0a
ff
08
11
ff
0c
0a
fb
ec
06
fd
de
07
fa
01
f7
e9
fd
1c
0d
e7
e2
0f
15
01
0c
03
0d
02
e8
0f
17
1c
24
f7
fb
14
31
11
ec
03
0b
fb
06
ee
00
e6
09
f5
02
e1
05
f6
ee
de
f9
0d
f6
e7
1f
07
ee
1c
e6
18
14
19
f9
e9
11
24
0a
f6
16
0c
f5
fd
13
f0
25
1e
18
04
bd
00
02
e2
1a
e4
0f
ca
12
06
fc
f7
02
f7
f5
0a
0f
ff
f3
fb
09
fc
fc
01
0c
09
f5
10
fd
1c
f4
0a
ed
fc
f8
03
04
f8
08
04
1e
08
ff
eb
21
0f
01
07
f9
30
1d
e4
0b
12
fd
f1
08
15
f4
d1
f4
eb
fa
04
f2
bb
f9
f3
21
0f
f0
fb
14
08
d4
df
33
15
45
d4
dd
1e
06
d4
18
a1
2e
33
f2
de
21
00
2e
25
1e
02
ec
17
f6
ef
fe
f9
ff
fc
f0
f3
f6
0d
07
13
24
10
fd
05
f0
02
12
f2
06
02
00
ef
ea
ea
00
da
dd
27
53
ce
ef
e6
3c
3f
08
03
54
52
e9
01
f3
06
06
fd
fc
e3
07
17
04
fd
fe
08
eb
f1
08
f2
f9
0a
f9
03
ed
e5
f5
f2
02
fe
e9
f6
08
fa
e5
2d
01
14
0c
10
f2
fd
ef
08
01
ea
11
fc
f8
f3
0f
12
ff
0a
08
ec
fc
19
fd
06
f4
f3
03
f8
04
05
08
12
ee
14
0b
01
04
f4
11
23
e1
15
13
0c
08
16
04
12
d4
15
ec
34
fd
10
e9
d5
01
11
25
f6
ef
23
f7
f2
19
01
0a
10
08
01
ce
dd
25
fa
0a
e7
10
13
09
fe
0a
02
06
f9
0a
0c
0a
07
14
f9
13
ff
fb
f0
16
f9
07
0c
08
01
fa
19
27
f1
0a
f5
0b
fd
06
09
22
06
e4
d3
dd
f2
3c
10
26
f7
f0
35
da
ec
f4
17
14
17
25
21
33
e6
dc
f5
16
01
12
f5
f9
04
13
12
f7
04
1e
01
01
16
f9
1e
fa
ef
29
fd
2b
2a
2c
15
ff
0a
f6
e3
ec
09
22
e8
22
2c
fb
17
ea
0d
f9
f2
0d
ff
fd
f3
f1
00
24
19
f8
0c
f1
1b
02
02
0c
0c
07
09
0a
1d
ff
fb
1b
17
11
0b
f8
0f
10
1a
ea
fc
ed
fd
05
f1
13
ef
ff
ef
f7
ea
17
f8
ff
0b
1f
01
26
f7
e7
f0
0b
f6
07
16
0b
f7
fe
0e
e9
fc
0b
10
ee
ea
0c
fb
01
f2
15
e4
0f
14
f0
15
08
f3
06
fd
04
f0
fc
f1
ea
ef
1c
f9
0b
fe
d5
0b
ec
f8
d9
01
fa
ef
00
ea
cb
07
fc
ec
e3
fd
04
1b
f3
f4
14
1a
1b
f3
17
05
07
09
30
25
2c
1a
e1
fb
eb
11
0c
e8
f7
fa
f7
ef
00
f1
0d
08
ea
06
cf
f7
f9
21
f4
01
1b
f6
05
0f
ff
03
12
1b
0e
13
0f
13
fb
ff
06
09
15
11
fe
ff
e1
ef
14
14
05
0d
f5
e3
f1
fe
04
05
f4
e2
fb
df
06
ea
f2
04
01
ff
e7
fa
01
03
13
f8
ff
e7
0c
1d
29
0d
05
f3
fc
fc
22
fd
09
09
0a
04
0c
0b
e9
0f
21
0a
ff
fe
fc
07
18
d4
0b
0e
02
10
07
fe
ef
eb
f3
ed
14
de
22
19
ff
19
f6
fd
f9
f7
22
2e
d6
ec
b9
23
29
ed
e5
34
e5
0b
ce
d6
03
2b
f6
e2
13
f2
05
06
0b
06
07
fe
0f
29
fb
00
19
14
07
06
fb
09
0b
04
11
0e
08
0b
0c
f5
00
0d
f4
02
ff
f4
f6
00
fb
05
fa
f5
f8
fc
01
03
eb
e6
02
03
07
01
ff
08
1d
20
f1
f6
fb
01
17
00
08
fc
09
f9
f7
eb
08
f6
fc
e5
df
18
f6
e2
22
fb
02
e4
0f
10
02
17
fb
0f
ee
ef
df
1d
34
00
02
f2
02
ed
f4
19
21
15
f4
f6
01
e6
14
09
f8
00
de
06
e1
f8
0e
08
12
fb
0b
0a
15
0e
11
da
0e
fa
f9
f4
ea
f4
07
13
0b
0c
ff
ff
f7
0d
09
f4
f6
06
f0
10
f4
e7
ee
23
01
ff
f8
0a
0f
d9
10
f1
12
f8
20
08
03
00
e6
ee
ea
cf
14
fa
15
02
fa
06
0e
f3
f7
fb
05
05
e1
09
fe
0b
0e
06
f5
08
01
0b
ea
11
ec
fc
1b
e8
df
f6
13
09
0d
fb
04
e1
17
fa
1f
01
d0
0f
f4
17
e9
f9
13
ef
18
05
26
f4
01
1e
1c
ff
0c
0a
f1
04
0a
fc
05
f4
e7
07
09
eb
0a
11
16
06
0b
1c
fd
05
0c
e9
09
f9
e0
02
04
e2
0a
24
fb
dd
fa
04
13
ee
ff
0c
12
1a
f4
f3
fb
0a
1a
0e
05
21
14
29
f8
de
2c
06
ec
07
f5
eb
e9
04
07
f1
fd
09
0b
fa
1c
02
0e
17
15
19
01
19
0c
f3
f9
09
07
28
f3
0d
fd
1b
02
22
2d
24
f7
0d
13
ee
1c
f2
1c
21
f2
19
d6
fb
f2
14
07
17
05
1a
11
0c
fc
00
00
28
0e
11
fd
fe
f0
d6
f4
d6
ff
f5
0a
f8
0f
fb
21
13
f3
f8
02
1d
f0
c9
0f
31
e8
13
eb
15
17
e4
f6
1f
ed
f2
0d
0b
f1
02
04
f9
24
e9
17
de
12
16
08
fe
e9
15
f8
17
f8
e9
10
04
00
01
07
fb
c8
cc
02
fd
e8
de
fa
f3
f6
e4
20
eb
0a
0d
27
df
f7
47
0a
0c
fa
2b
ff
1a
02
f5
07
ef
04
03
f3
10
f5
0b
13
e6
07
f5
f3
ea
02
ff
1b
11
f4
05
16
ea
f0
f6
21
1c
ff
fe
00
1a
ee
ea
08
0f
13
11
0b
fc
0d
ff
ec
e7
fc
05
10
f6
2f
26
1a
0e
f9
10
f6
00
d3
00
f7
02
ec
d7
e7
00
e2
dd
1c
2f
e5
fc
04
fe
2c
f3
03
18
e6
05
03
12
0f
f6
34
22
cf
fa
d2
14
28
e4
e0
10
ef
20
00
d7
fc
2b
fd
dd
1a
f3
04
bd
f6
10
f7
0c
fe
0c
e8
0b
0c
e9
16
02
04
fa
fe
f2
03
14
03
02
fc
0d
02
04
03
02
08
fb
0c
0a
fa
c9
ec
da
fa
09
df
17
d4
e0
f0
02
07
0b
0d
1e
24
02
f5
0f
1f
12
0d
0a
05
f8
0a
f0
fe
0f
ef
05
11
1d
0a
f7
20
00
fd
f2
0a
10
f9
01
0d
02
02
fe
17
00
fd
05
08
07
13
ec
15
02
e5
09
14
1c
fc
10
f6
06
17
14
11
22
cb
0c
d7
09
04
05
17
28
fa
ee
e5
25
16
03
0c
0a
fa
ed
f2
d7
f0
09
09
05
f1
fc
f7
fd
01
ed
05
11
e6
f9
04
f8
04
0a
0e
f2
03
18
10
e8
16
11
f2
fe
0d
07
0a
0a
07
2a
0b
f8
17
f1
1a
d0
0c
f4
21
0a
f4
fc
fe
20
01
0b
07
05
03
0f
0e
fd
fa
d4
e7
0e
02
f6
0a
f5
ed
04
06
0c
fd
1d
0a
ec
07
08
fc
f9
0f
f6
08
08
03
eb
1b
fd
1e
17
17
e5
17
21
41
11
f2
05
dc
13
1c
d4
f2
08
d8
f3
0e
06
07
15
05
f2
11
00
ef
f1
08
ea
04
2b
f2
15
fa
02
06
f6
03
28
fc
f5
0f
00
02
f0
fc
13
e9
e7
07
0d
fc
0b
f6
1e
03
00
04
17
fb
25
f6
04
17
0f
04
03
0e
0f
f3
fa
06
1c
06
0b
1b
07
e1
f5
15
fe
f7
f4
f9
fb
07
19
fa
2a
fd
10
16
fb
27
1a
02
e4
df
06
ec
f0
0d
1f
d4
29
c6
c3
00
c9
04
12
df
0d
0a
0f
f8
1c
d0
f8
1c
3c
fd
e0
16
f4
cc
e2
03
e9
05
ec
13
1c
12
02
0b
e7
04
17
03
0a
0f
06
ed
18
f8
0d
f4
fc
f5
07
f9
0a
07
fe
ef
05
13
fd
00
04
03
d3
0e
fb
28
04
ee
08
de
e4
ee
f1
0c
f9
f6
12
04
00
f5
f1
fc
06
e6
f8
e4
00
f2
de
10
d8
ed
f9
0e
e3
dd
25
12
f5
08
f1
ef
1d
2a
21
11
01
fa
f2
03
02
f0
dc
fb
f7
f5
00
ee
e9
f6
f1
0a
f9
fd
05
17
fe
17
18
1e
e8
fb
11
fa
f8
19
f6
05
0d
03
1c
ff
13
04
fc
f2
00
10
19
08
03
00
1d
f0
e6
0b
dc
0c
ea
e8
01
13
1e
09
0f
f5
fc
12
f2
08
1b
ff
0a
fd
eb
23
11
0b
0e
df
07
eb
ff
f8
10
0f
fe
f0
ea
dd
1f
ec
c3
e2
26
10
0d
03
e7
02
fd
ff
e0
19
06
f8
d6
f0
15
15
09
00
fa
f1
04
fe
05
05
01
04
f0
e1
03
f3
fe
fb
13
f8
01
06
0c
e8
0e
06
25
f1
f7
f9
02
26
f5
11
1e
f2
fe
c8
0d
f0
19
e6
ff
20
f6
11
02
01
1d
fc
14
0b
06
04
25
1b
05
17
14
15
12
01
12
fc
03
fb
f6
e9
ef
13
0f
17
dc
e8
f5
f7
e5
06
e3
07
f1
ed
f7
0c
01
11
ff
d3
10
24
0a
f9
0d
f9
e1
27
17
22
0b
f9
04
db
ef
0d
ed
20
39
e3
fc
f8
33
1b
f0
05
2e
02
2c
ff
e7
ef
06
0f
07
ff
e5
e7
fb
16
ff
ef
ff
da
02
fa
f0
ed
f9
0f
1a
dc
f3
f0
ea
09
2c
1c
18
e7
ee
fe
17
e5
fd
04
f1
09
12
04
dd
11
08
04
ef
fd
fd
0d
0e
24
07
07
f9
dc
0f
e6
15
f9
eb
d6
04
ea
02
0c
f7
f1
00
f6
da
18
f9
ea
e6
fd
f5
25
f1
fb
09
0d
0d
e6
fd
0d
e9
28
ed
f9
d4
fd
fa
19
0a
eb
18
ec
06
01
f1
f8
0d
fe
f9
fd
2d
00
04
0c
04
10
02
17
02
f6
10
1d
fb
ec
2b
01
11
07
fd
07
f8
e1
f7
16
0d
f2
0a
f9
0c
f1
01
e6
10
f8
f1
ff
06
11
04
f9
d4
e4
06
0a
fb
0b
0d
09
0c
14
12
e9
e5
09
0f
0b
fb
08
f8
1a
15
0b
f9
01
ff
0d
fb
00
09
16
04
e9
fb
0f
0a
f7
f1
f1
f7
f6
f5
f4
0b
03
01
fd
ec
08
fd
fb
15
fc
01
e8
03
e8
0e
1a
f2
09
0c
f2
f9
01
f3
f1
fe
dd
05
11
e2
e6
f6
08
f2
f2
0e
fd
07
03
2d
05
01
28
0c
25
1a
0c
0d
f9
f6
16
eb
00
12
18
f9
14
0f
f6
f7
cd
00
00
04
f8
17
0f
fc
fb
fa
fb
ff
06
0b
ff
00
e0
ff
fd
00
05
f6
05
ed
04
04
e2
fe
02
0d
fb
df
e9
fe
f2
10
ea
0b
09
e7
fc
fc
fe
13
11
0f
08
fc
04
e7
03
0c
f9
b9
12
17
d7
f3
f6
04
fd
e4
ee
df
e6
0c
0c
ef
e8
03
04
dd
1f
f5
17
0c
2c
19
ef
07
fd
18
eb
fd
14
0a
e0
fc
f4
01
10
f3
ee
29
0b
01
02
05
26
12
f6
f7
09
08
0a
02
f7
ef
f2
03
19
07
ed
0d
ee
ff
17
fd
f9
0f
dd
1b
ed
ec
0f
f4
12
3c
ef
12
c9
21
1f
e7
e7
1c
e8
14
ee
f7
cc
06
f8
dd
f3
fc
06
f8
f2
0e
15
02
1e
1d
f2
ff
10
1a
ea
14
f6
0b
0c
05
02
f3
f8
17
fc
f1
05
fc
f6
f0
19
02
14
de
fb
f6
1a
ff
0d
06
f3
f8
f0
d9
ef
e8
f5
e8
0e
04
fa
e6
fc
0b
f4
0d
1c
08
03
20
f2
11
12
03
1c
f7
2e
f6
0a
08
20
0b
f6
09
f8
f6
03
08
e6
f9
eb
09
f6
12
0c
04
ee
fc
0f
ff
f7
12
f2
25
0a
f9
ed
14
09
f1
f3
1b
16
e3
01
0c
f3
db
f8
0e
13
09
db
ef
ca
20
38
03
db
00
10
f3
1c
c9
d0
04
1c
06
f4
00
ed
09
06
ee
f7
f6
f4
15
f8
ee
eb
ff
09
12
f3
0a
0c
29
fd
fd
14
00
15
07
21
d4
fe
dc
f9
f0
23
07
24
e3
fc
1d
2c
05
e1
0f
fd
13
0e
f3
03
fa
d4
fc
f1
0e
17
0e
02
fc
11
1d
e9
f1
f9
09
00
eb
0f
10
f5
d4
f5
f7
24
07
fa
ff
14
14
f6
07
e7
01
09
06
0b
f1
fc
1c
1e
01
f5
04
f8
f9
03
08
f9
eb
13
f4
fe
e9
16
ea
02
f4
fe
1d
05
07
03
0c
f9
fd
e4
13
02
f2
ff
fe
07
f5
03
ff
f9
0f
f3
0b
01
10
fb
eb
0c
2d
03
f5
f9
f3
e6
07
00
f5
fa
f2
f7
04
13
21
1a
fc
fe
0b
f7
ee
fe
09
05
00
e5
15
0e
0f
f7
fd
f0
02
e8
e9
11
07
0d
01
f5
ed
f9
f5
00
0a
f5
f7
08
00
fc
01
00
fd
fd
13
02
01
07
fa
0c
fb
0a
15
04
0d
f9
05
f6
fe
f9
ff
f7
fc
00
09
fc
1e
12
16
28
0d
ea
e4
0b
1e
1c
f8
08
f8
fb
f2
fc
17
f6
02
06
03
f1
e5
0f
fe
ea
e1
07
03
06
ef
0a
13
10
21
f1
10
09
0b
f8
12
f7
06
fc
00
1d
08
fb
01
d8
fc
fa
0f
1e
fd
0e
ea
0f
fd
ef
ee
f9
f2
26
0a
20
0f
1b
f1
f2
19
13
12
fd
e7
14
09
f4
ee
f6
2d
f4
1a
1f
24
1b
f8
12
30
f0
f9
39
2c
fa
ea
f3
1c
04
03
01
22
03
0e
ee
fa
14
fb
01
f7
07
fb
e2
21
fa
32
21
04
e1
f1
ec
23
0e
de
10
12
f5
cb
fc
24
da
f2
f2
16
f6
ef
e4
fe
1c
ff
0a
05
0e
02
17
f5
f5
ea
e4
10
16
08
00
f8
f7
e4
f9
ed
03
01
01
23
dd
0b
e6
17
18
01
ef
14
da
1d
19
f8
ee
02
1f
0d
0b
15
0e
03
ec
45
f2
13
1c
09
07
09
19
29
0a
f2
09
f3
0f
f2
04
05
fb
fa
05
ff
f3
fa
06
09
0e
16
ff
07
14
ff
fe
f8
fe
07
ff
d9
03
09
f7
f1
09
d5
0f
d8
fb
01
09
04
dc
e5
14
2f
ef
e5
2c
19
2e
f1
46
12
1d
1d
df
0b
ff
f1
06
f3
16
e7
00
0c
fd
05
df
03
f4
fc
ef
fe
fe
03
f6
08
13
f9
0d
04
05
23
f3
16
f0
0d
0c
fe
0c
0e
f7
f5
01
f7
15
fe
ba
19
16
0c
36
2d
da
ea
d1
2b
3e
f5
23
26
ef
f2
e9
02
fa
ff
05
f9
f6
e6
f5
ea
ff
09
fd
f4
02
fe
08
f8
0f
27
26
00
e4
ee
f1
0a
13
ec
09
fe
f4
f5
0b
f7
06
f4
04
fc
f5
f6
00
0d
07
00
fa
01
fd
04
01
ff
fe
08
df
22
17
ff
fc
ff
05
ea
15
07
e8
04
20
fa
0a
04
02
f0
2c
17
fc
f8
ff
04
f9
f6
03
05
ff
eb
07
f3
00
02
fe
e1
fb
fa
f9
09
06
ed
0c
f4
ee
f0
0e
fb
f8
04
f0
f5
e1
d9
f5
07
ef
db
fc
f9
f8
01
01
15
11
0a
fc
ea
e5
00
fd
f8
06
0c
f6
f4
f1
01
fd
18
04
11
e5
f2
fc
e4
1f
ec
11
f5
1d
15
e4
13
f4
f5
10
f7
02
01
f6
02
0f
fb
06
06
fd
0f
1b
03
03
04
01
fa
0c
00
01
07
ff
09
05
04
e8
17
fb
f1
d4
e9
f6
0b
07
f9
f5
f2
29
ff
04
fa
15
03
1a
01
06
fc
f3
01
f5
11
15
00
1f
07
fc
fd
02
ef
04
ec
fc
12
e1
e1
1c
25
33
04
c0
01
09
f6
f1
ed
e9
f4
cf
00
f2
01
e0
df
f6
e6
06
e0
1e
f9
11
f0
f5
05
fb
08
16
ec
f9
07
f9
06
f5
f3
03
00
e8
e7
03
e3
fc
0c
f4
f6
e9
00
e3
e7
09
f0
0e
ed
02
08
f5
f2
fe
ee
07
f4
15
10
f6
1c
fa
f7
f8
fe
14
08
09
06
1c
01
ed
0c
d1
11
18
1c
04
f4
19
e6
0c
0b
f8
f1
02
f0
fa
f8
fa
f0
f0
f1
f9
f3
bf
ef
02
d4
02
02
03
01
f0
fa
e7
ec
f4
f1
f5
f8
f7
f3
10
0e
11
03
0b
e3
fa
15
12
f8
e4
17
0a
22
fd
f6
07
14
04
01
ff
0b
fe
f7
f9
f3
0f
f4
fc
0a
03
f2
03
18
0e
08
13
e6
ce
18
ec
07
fa
1a
f8
27
fe
f8
06
1a
10
f6
0e
04
22
e1
f7
0e
f0
f8
ee
12
f3
e5
f5
05
fb
fe
06
0f
14
0d
09
0a
03
f1
0c
04
0e
0b
17
0e
03
fb
f9
08
fd
09
fb
fb
f8
f4
fa
fc
0d
f3
01
07
0f
03
f9
0d
16
fc
06
1a
03
03
0c
fe
fc
ff
fd
00
0c
df
0a
03
04
ee
f5
06
fa
ea
01
1a
db
e7
0a
05
15
01
0d
0c
f2
fb
0d
ff
fc
fc
17
0d
20
0a
ec
09
fd
01
f5
f0
e0
f1
1d
f0
f5
11
e0
e8
e5
15
f0
eb
08
19
07
f2
05
f1
05
e8
ec
ef
e8
01
f4
fc
c3
07
39
0b
0a
15
01
0b
23
0f
0f
f5
c9
29
fb
f2
e6
d1
02
1d
03
0f
0f
19
ff
e1
e0
30
f6
e1
12
21
de
ea
e8
f4
05
00
ff
e8
08
10
2a
05
02
ff
07
f4
f3
fd
e9
d2
e8
dd
e4
22
24
f0
1d
06
28
02
f6
06
15
28
ea
07
ec
f1
05
0a
00
f5
f5
f2
00
fa
06
d8
ee
fd
0f
f3
ff
17
21
07
da
0c
f7
ed
1e
ed
02
e8
06
fd
0e
df
20
10
0c
da
df
0a
c9
d0
1f
ff
ec
e5
20
1c
f3
e5
ec
e8
05
0e
f6
fd
01
e0
23
fd
fd
fe
0b
ef
f4
0a
fd
01
f1
11
02
fe
08
07
02
d0
0d
04
ea
f9
f2
15
1d
00
ff
06
fd
fe
fb
18
ef
25
ff
00
05
03
11
e2
13
20
05
0c
0c
14
f8
ef
f9
1c
f6
ef
1a
0f
1b
06
f7
0b
fc
fb
12
f5
1c
0a
f3
f8
d2
f4
00
01
e8
22
00
20
17
0b
17
f6
f4
19
f6
03
05
0c
f2
0c
1d
04
09
0d
fe
f1
12
19
20
ea
df
07
fc
fe
e7
00
03
fd
d7
0c
fc
04
06
0b
00
08
fa
ee
f8
ff
0a
0b
fe
25
f0
03
14
eb
0f
e8
07
18
e3
fb
fa
06
0c
2c
f8
f1
0d
fa
e8
f7
04
f6
f0
e7
e3
db
f9
0e
0b
0a
07
05
ee
11
f3
fe
fd
15
f7
08
1f
e4
08
16
0c
09
f0
f3
f5
eb
de
0d
f2
e4
0e
07
fb
ef
e9
fb
ea
e9
0e
f4
f2
17
0b
d5
19
15
f7
fb
ed
0a
12
00
f8
f7
e5
fb
08
fd
f4
ff
f9
0a
e9
04
fc
19
ef
0c
05
f4
ee
ed
05
ec
05
ed
f2
15
f1
f9
f8
f7
fa
ff
25
00
16
03
03
06
f1
ef
10
04
02
12
f3
12
ec
10
03
13
20
3d
f7
2c
e3
20
1f
ff
05
25
f7
24
db
d5
f8
2d
09
ff
27
03
09
c7
21
40
0a
12
c9
06
e9
18
10
f1
05
01
11
10
0d
03
ff
16
12
f7
0a
0a
fb
13
fc
f2
f9
fd
23
01
09
fb
0a
eb
10
0b
f0
30
ec
ff
fc
fb
09
1e
09
36
2f
e6
f6
0b
16
17
fc
f7
08
ff
1e
05
00
0f
0a
16
05
29
1e
07
03
02
1c
f4
0d
16
fc
02
e9
f6
f4
d5
d7
fb
03
16
f5
e0
e7
d6
0c
00
e8
e6
09
f5
fb
fb
f3
fc
05
04
01
03
df
0e
f3
f3
0b
fd
de
01
fe
ea
e6
24
23
f6
fd
06
f6
0d
ff
0a
f7
13
2b
3b
d5
fb
f9
23
1d
02
08
2f
c9
2b
de
f5
f9
07
f6
f5
0f
06
08
05
09
f3
ef
1c
f9
1b
02
0e
00
0a
fc
f8
01
0a
19
e9
fd
06
06
0a
f9
00
fb
1b
e9
f6
06
0f
d2
f6
01
19
13
0c
0c
17
f4
f9
d9
f8
05
ef
e8
08
fa
05
f9
0b
03
08
09
ee
00
f3
e9
ea
39
19
ff
f5
26
1c
1d
af
1b
0c
0a
07
e6
07
dc
2b
0e
ea
18
fd
ec
01
00
f6
1d
15
06
1b
fb
e1
ec
14
f4
e8
f0
f7
fa
fb
0a
fd
f4
fa
13
17
ed
0c
0e
dc
14
00
12
01
fc
f3
ff
f4
ee
f9
fc
1c
e2
f2
04
fb
ff
fe
01
07
01
2c
0d
18
ea
04
1a
f3
1b
1b
0d
eb
12
19
0d
e5
04
11
19
e6
fa
fe
f6
e8
10
1a
0b
02
11
14
11
0d
fb
07
e4
fc
f9
f3
ff
1a
f7
44
e7
f2
0b
f7
05
07
e1
ef
d7
03
1a
e6
13
f7
f4
dd
0d
05
ca
06
f4
f7
05
f1
fa
f3
e4
11
0b
ff
0a
fa
ee
05
ee
02
03
25
06
f6
11
10
09
fa
08
0d
1d
fa
e7
05
05
f6
22
fd
fc
1f
eb
f4
29
0d
1f
f9
bd
16
d1
f2
fe
f0
11
05
e2
df
fe
00
16
fd
f9
ea
03
f0
06
04
f5
f5
08
dd
05
f6
10
fd
df
ed
0c
2b
0e
34
d2
0b
0d
b6
ef
e3
16
f9
f1
e7
08
fd
fb
e7
e4
f1
0b
00
eb
16
fc
ef
ea
02
fd
f9
05
ca
fa
e5
05
e5
1a
12
e1
0f
0a
fd
0b
16
05
07
f9
f1
ed
ef
fb
ff
0f
f0
fd
12
09
f1
11
eb
ec
f9
0a
08
eb
e7
e1
eb
0b
0d
ca
1b
08
0a
fa
ea
ef
18
0d
eb
1f
f3
03
27
ce
e8
0c
eb
15
1f
f1
0f
f4
1e
10
ee
ec
21
08
0d
ff
e5
ca
22
d9
f2
e6
2b
fe
ef
17
0f
09
04
f4
13
04
0f
f9
f4
fe
fa
08
f7
f2
ff
fc
0b
03
08
f0
05
15
04
f9
12
b9
da
25
09
d4
fb
d9
d5
ee
ef
09
23
2c
11
fc
1a
04
1d
18
05
17
05
00
0c
e9
20
0c
10
f1
00
1e
ea
fa
01
2c
0f
f4
14
0c
09
13
0c
f8
fa
23
18
fc
fa
f5
13
00
0e
f3
fe
ee
00
eb
11
fc
0d
1c
f4
f3
f8
19
08
0f
02
05
f5
0d
df
04
09
ec
00
fa
fb
0f
02
02
28
ed
fb
0b
06
11
06
01
fd
e8
f5
e8
d6
dd
06
1a
0c
f8
09
fe
fe
f5
10
07
07
eb
ec
01
02
04
0a
f3
de
1b
fb
e1
07
02
d4
d9
ed
01
0a
00
02
fe
0a
c7
df
0e
08
f3
df
11
00
0b
e7
f5
f5
0e
15
ec
0e
ee
03
f3
fb
ef
0d
d6
c3
ee
23
09
19
f7
08
f7
df
fb
e5
13
02
fb
ff
2c
08
f9
f6
05
12
ff
0a
f6
01
38
f9
1b
27
2a
d5
03
23
42
fc
17
0a
df
1c
1e
eb
20
0e
f6
2b
0f
03
22
00
0a
24
12
fe
f5
e9
e9
06
f7
03
14
03
f1
04
ec
f8
dc
33
fe
12
f1
f6
16
ec
00
01
f3
14
fe
01
0c
06
e5
f9
fc
fa
22
12
06
1d
0a
17
ef
10
f8
fd
16
f1
f0
fb
14
ff
2e
03
1d
2e
09
f0
33
e5
17
ff
dc
12
f9
05
05
04
d4
ee
0d
df
0a
e6
06
12
e2
f3
f4
15
ff
e5
08
ef
f4
08
fc
fd
0f
0f
ed
f6
12
04
11
f3
19
15
07
1b
ec
fd
0e
f6
f0
01
f4
fd
ea
f8
dc
eb
da
dd
07
df
0c
f1
19
0c
26
0b
08
09
0d
ef
12
fa
0b
f1
f8
f8
00
fe
06
00
00
e5
15
eb
eb
fd
10
f7
04
df
f9
00
07
fe
16
07
fd
ed
02
fa
ef
e8
f4
e8
d9
fe
de
ff
eb
01
f8
e1
fc
07
16
14
07
03
e5
e6
ff
3b
17
41
c1
2e
fb
d1
09
02
14
0d
03
ed
fd
f8
00
e9
e4
f6
19
fc
00
16
1b
07
fb
11
01
07
d3
f1
0b
20
fa
0b
d7
19
21
c4
08
1f
e1
16
03
20
24
fa
c3
05
13
e4
16
06
f5
0e
f1
f6
f9
e9
f7
ee
e5
fd
f8
fe
f4
05
ee
07
e6
d7
10
02
15
11
03
ec
06
e8
ff
fc
e8
fb
e7
02
08
02
19
2b
e1
05
08
29
11
f4
17
2b
fd
11
05
e3
e8
07
fd
fe
1c
33
2d
fb
11
e6
12
13
0a
2c
d7
21
02
cf
14
03
01
01
fe
05
03
07
f8
fe
fd
0d
03
00
05
08
48
3c
0b
1d
1d
f3
26
17
06
fb
fc
22
e5
ec
1e
e9
14
f7
1e
3a
f0
0b
0b
ef
ea
d4
16
ef
28
fb
0c
2c
f9
13
1e
22
0a
09
23
08
10
09
ed
05
24
24
07
2b
04
15
f8
11
08
05
04
fa
00
f6
f6
e4
01
f9
03
03
08
f4
01
0f
ec
ff
17
d4
fb
15
d2
14
fa
12
08
f2
15
3e
c5
05
fa
22
11
d4
05
1f
f9
ef
f6
d7
fb
fa
12
19
ef
fa
05
08
02
12
db
0b
ff
ee
00
ef
fe
00
0c
07
1d
30
2b
ce
e0
e3
fc
1f
ed
0f
d9
fd
09
f4
00
f6
10
08
09
dc
0b
0c
12
14
ea
0b
f9
20
fc
f1
d8
df
19
e0
de
f4
cd
dc
e6
2f
18
2e
01
1d
fc
bc
09
09
4f
e1
02
1c
07
fc
e0
4c
14
2f
c7
1a
0c
e7
0a
ed
08
01
fa
db
11
fc
fb
ef
ee
e0
01
16
f8
00
ed
0d
12
0b
f5
0a
15
fe
d1
07
0b
ff
1b
1f
fb
0e
de
ef
e9
da
e1
01
08
ef
f1
10
ef
0a
0d
06
f2
09
ff
00
01
11
ff
06
0b
0d
02
ff
df
f1
fe
fc
f6
ef
ee
fd
e9
01
04
fe
ff
08
ef
05
f3
c8
fa
00
fb
f5
0b
df
0a
22
f7
f4
0c
08
ea
0d
ee
f2
0a
01
04
0b
fb
ff
0b
e4
f5
ea
17
0f
f7
f0
ec
fb
11
fe
15
fc
06
12
f0
fc
12
07
fb
15
06
0f
16
15
00
01
05
18
df
dd
0d
f9
11
eb
c6
e1
ef
e3
12
e4
0e
f7
f1
ff
09
2d
e0
f4
ee
13
00
de
e6
19
fa
fd
f8
02
01
f6
16
f4
f5
f6
23
e2
16
25
19
19
ec
1b
c2
1c
0a
d8
01
f6
ea
08
e4
d4
00
e0
db
0e
e0
02
ed
17
f7
dc
22
02
e8
1c
1f
e3
0a
28
2c
0f
f9
06
0d
04
07
f7
0f
f0
00
02
0c
f3
f7
c7
1f
03
d2
f9
e7
f0
ee
df
fc
ef
0f
07
0b
f5
1b
16
05
03
27
03
fb
06
1c
1c
11
fc
14
1f
05
f3
0c
12
f4
fb
fb
17
00
16
03
f9
11
15
e3
01
07
ec
01
ef
08
f7
f4
03
15
09
f6
f3
fa
2b
02
fb
fc
fd
2c
0a
0f
19
e2
02
e8
05
fc
18
1d
33
e3
f0
f1
1f
13
de
f1
11
f8
1c
1a
e6
ed
06
12
0b
11
fe
15
e6
25
fe
19
1f
da
11
bf
17
08
de
04
16
fb
08
fc
0f
fc
00
f8
06
f6
f3
f9
fe
f7
10
10
2d
ee
1d
09
03
13
f7
fd
1d
fd
03
e3
f0
16
03
e3
06
0b
e0
f5
f1
f4
04
f8
12
13
f5
14
28
0d
02
fe
ff
0f
0b
2c
13
1b
e9
25
f5
df
08
11
16
0c
f6
2c
f8
0a
e3
ed
e3
ed
01
f2
f6
df
e2
0c
f5
d7
f6
04
e6
08
f9
01
e9
09
fb
16
0a
f9
12
e0
12
fb
0c
0c
15
fd
02
ec
26
05
14
0b
12
f3
21
f9
ed
01
fe
1d
0a
02
fa
ed
0f
13
fc
0f
fe
d7
1b
ed
f0
d9
f9
20
fc
fa
ff
fe
0e
23
00
06
0c
05
14
0a
f9
11
03
09
0f
1d
07
22
de
18
0d
3e
13
eb
16
f0
2b
eb
d4
0b
14
ce
1a
f4
d1
fb
d5
03
1c
be
0e
1b
ef
eb
0e
ff
ce
02
f0
e8
ed
d9
fd
f7
f1
19
09
f3
e1
10
0b
fb
f8
0f
05
0f
e3
09
02
00
f6
fa
01
fa
0a
18
0f
e5
fd
f5
f6
e1
0e
f5
0d
dc
fd
e6
f8
fc
09
f5
03
0a
f9
1c
ec
0b
f4
ef
2b
05
09
01
fb
f1
00
ea
06
17
2c
d7
01
fd
07
02
17
f0
f8
16
0a
e7
e9
07
23
06
0c
f7
eb
11
fd
f5
24
f7
17
27
fd
ef
01
07
f6
01
10
fa
28
d4
06
18
f0
d6
01
fa
02
05
17
fd
21
ee
05
06
f6
fe
11
fd
00
ff
fd
04
e7
02
05
08
13
07
07
d6
e7
f1
08
1a
11
00
14
ff
00
09
0c
f2
05
eb
0f
f2
07
01
f7
17
02
ef
19
e2
05
f6
08
f0
e8
1b
1c
0c
35
fe
24
f6
c5
e3
09
01
f8
f2
db
16
e6
eb
05
07
30
17
00
f9
fa
da
f4
01
fe
f9
f9
d0
ff
0b
f8
14
08
0c
04
e8
fe
e5
d8
01
06
f0
ec
11
06
19
04
00
f3
07
d3
ff
18
19
1c
e3
fc
fb
09
00
ec
09
14
07
f7
ff
14
06
d1
19
1a
e1
f0
10
ff
00
dd
05
f3
09
0d
fb
01
db
0e
09
ea
1b
06
13
df
17
14
f7
07
12
00
00
f4
f8
fc
fb
11
fa
e7
f2
09
fc
fb
fa
eb
01
f1
ef
f8
f0
eb
e6
d3
0e
02
f4
e3
19
0e
01
f6
02
14
fc
d4
02
20
e0
03
e9
05
f8
03
f4
eb
18
1d
f0
11
da
12
1c
f6
f3
07
db
23
01
e3
f2
16
01
fd
15
08
ff
ec
ef
1f
f2
f6
19
ff
e6
fd
f9
2d
07
0c
10
08
fe
0f
0e
fe
15
09
07
12
00
ff
ff
f9
00
e9
07
0b
13
f8
fa
0b
08
0c
ee
f4
13
10
f6
eb
f1
1e
f1
3a
2c
13
03
fe
00
19
04
e8
14
16
d5
ed
fd
db
11
0e
10
de
ce
f7
ec
ed
21
07
ef
e7
18
03
01
06
00
f7
0e
fb
09
0d
01
02
12
25
e7
08
07
14
f4
db
0a
e5
f8
11
05
da
08
ef
32
05
e3
dc
1a
10
2c
db
38
2d
23
dd
df
21
10
e5
0e
ec
0f
17
11
f0
fa
21
05
fd
de
0e
f9
03
f8
0b
ff
00
fc
f8
e1
ef
07
ed
ee
03
ee
f4
f7
02
29
e1
21
fb
e9
dc
00
15
08
07
15
05
21
fa
ee
13
0d
05
f9
05
03
f9
0f
00
0b
11
f6
fd
ee
fd
0e
db
f5
1a
0a
23
fd
f4
f0
fc
fb
0d
fc
05
08
01
e3
ff
12
16
ff
f7
06
08
00
e6
fc
01
07
f0
fd
ec
04
e3
08
f7
e7
06
f2
fb
05
de
03
fb
0c
0e
12
be
db
14
11
ff
f5
02
e1
ed
f8
ff
e4
fa
03
b8
e5
02
f6
fc
05
f4
02
fb
01
11
25
11
0b
1c
ec
03
0a
f9
fb
10
0c
09
e3
fe
f6
ef
ff
de
0b
1d
13
36
38
0d
ec
0f
17
2a
00
fb
11
22
ef
ee
e5
18
e3
1f
01
13
fe
16
03
13
0f
df
19
0f
dd
e4
eb
f0
03
dc
d6
13
fd
f8
fa
db
15
16
ee
e4
0c
1b
02
f7
f2
f1
f7
0a
12
09
05
fd
ff
12
01
ee
f9
19
e8
07
00
04
06
f1
f1
fa
12
0e
09
fb
19
17
f7
ea
f8
15
07
07
cf
0c
06
03
fa
f5
f3
02
05
12
f6
f9
f7
09
07
20
0f
01
0a
04
17
09
00
0d
fe
0e
e9
de
14
e7
ed
0b
ff
03
ec
1d
f0
f2
fa
fe
fa
f6
ea
e0
ef
19
f2
12
07
19
fe
ec
fa
14
02
ed
17
0a
f7
02
02
0b
06
ed
e6
09
db
03
d9
ed
fe
ee
04
ee
03
0d
d3
f9
fb
f8
e5
f1
f8
07
f8
f7
06
01
e7
06
05
fe
07
0c
f4
06
05
eb
f7
f4
0f
1a
fe
11
04
ff
03
00
f6
e2
0e
f3
f3
ed
08
02
e7
ee
18
03
f4
fd
0d
00
10
fb
12
15
2e
ef
09
06
18
f5
db
13
27
0a
ff
0b
0d
13
ff
0c
fa
0e
fe
14
0c
09
fd
f8
04
08
fd
fc
1e
09
04
0a
11
f7
0a
23
09
ec
ee
17
e0
ec
14
00
06
0a
f6
0b
00
09
fe
ff
ff
ef
ff
f9
04
04
0d
fd
10
0e
fb
f2
12
0c
fc
e6
09
0c
00
13
f4
ef
f3
f3
06
08
fa
1d
1a
00
00
0b
1f
02
16
0f
14
0a
0d
1d
0f
ec
1a
f1
0c
eb
11
07
ff
fc
f5
06
e1
f7
11
04
f2
08
f2
f0
17
ea
16
05
20
fb
f4
10
ef
03
19
fd
ea
fa
09
f1
e8
fb
ff
03
ea
09
ee
0c
00
f7
01
fd
17
1b
05
f4
f4
f2
30
fc
0f
02
ef
0b
08
fe
ed
15
13
11
f3
16
0e
fc
08
e3
00
1b
dd
0d
ec
f3
fb
fb
fb
27
de
15
08
14
02
09
eb
0c
02
f5
07
00
f4
02
19
f3
f9
0b
2a
e7
eb
07
19
00
01
03
0b
e4
ed
fc
00
fe
f3
0f
04
fd
f5
04
e0
0a
00
e8
1f
04
ff
f7
10
0f
f8
09
f0
0c
fd
02
09
04
f7
1b
fd
01
05
0b
05
ee
00
0e
0b
0e
e5
0c
08
f0
02
0a
f4
df
11
0d
13
ef
0b
1c
15
e2
0a
10
e3
f2
00
fb
f3
f5
f7
08
f1
03
fe
dd
f4
f0
f8
08
f5
ec
fa
02
fa
0b
1e
0a
fd
12
e7
0c
ef
08
0b
09
02
fd
00
05
18
f5
e9
f4
06
01
0a
0e
09
f5
0c
f7
12
fa
e2
0f
ea
f6
e2
00
09
f0
f6
fb
fe
eb
09
0b
20
06
f2
17
f0
0a
0b
05
09
f9
f8
e8
eb
e4
1a
02
1d
28
cc
1d
d3
09
05
e9
06
0e
08
10
05
09
fa
01
e7
ea
0e
f3
fe
ed
ee
15
12
ff
10
e6
05
fe
00
18
20
04
0e
0b
f4
ff
03
f9
0c
31
f1
14
05
21
16
0d
03
27
fd
f7
de
04
f6
df
01
0a
0f
e6
00
06
08
e9
1f
0a
0a
ec
08
0a
f1
fe
0a
f5
fb
f8
03
f8
ea
05
02
05
e5
fb
fb
e5
02
ec
3d
08
ff
15
05
f8
0a
21
13
10
ee
f6
ee
f6
03
e9
f5
f9
fa
01
01
ec
e7
15
f2
06
f4
fa
ed
ea
ea
f8
0c
f0
ff
03
f3
d8
19
13
ec
00
d5
ee
18
21
fe
fd
08
fc
08
fa
05
f4
ff
0d
07
0e
ef
08
ef
05
0d
fe
e3
d5
0d
d8
ef
ed
e7
f3
fb
f6
fa
f0
05
09
fb
ed
fa
1a
0f
03
dc
f9
0a
fe
ee
1a
f4
14
f4
ec
11
f0
27
27
ed
0b
f0
1a
23
f9
06
08
f9
11
fc
e2
09
28
f0
18
0b
f8
10
e9
0f
3d
0c
22
ee
fc
f1
08
01
df
ff
07
00
02
f5
0f
f7
e9
06
11
f9
0d
fc
ff
f3
fc
15
27
f4
e8
ea
0f
21
f5
02
19
f0
24
d0
02
13
1b
e6
0e
19
19
12
e1
fe
03
17
0c
f1
f3
f9
11
ed
0c
e0
ff
27
0f
f4
0f
08
19
f6
fa
13
03
06
28
ef
ef
10
10
bf
10
1d
07
e9
ed
ef
fd
01
02
08
f1
06
fd
fe
f1
0f
fa
fb
f2
06
08
e2
04
dc
08
01
0c
e2
f7
26
15
e2
ec
ff
ff
fd
f2
15
05
df
04
12
dc
e1
f5
28
14
ed
09
e8
f8
34
df
01
0d
e0
1d
db
e9
1b
0c
f2
f1
fe
14
13
0b
fb
25
00
f8
10
f9
10
f4
10
0b
fa
13
2c
05
28
f0
07
2d
36
1c
d9
ff
dd
19
22
b6
05
fe
f1
00
dd
f8
fe
eb
03
05
eb
10
09
e6
fa
f2
fa
e4
29
f2
08
05
d8
01
d9
d4
0d
ef
09
f2
ed
ee
0a
e7
24
12
21
a9
10
12
20
f5
e9
03
e4
1c
19
f4
f7
ff
f2
0b
f3
1d
07
ed
e6
02
26
26
f3
16
09
e7
1b
07
fb
16
05
0e
12
18
0a
f8
0a
0f
08
03
16
02
1a
16
f9
f3
e4
f8
19
f8
01
0d
fc
0f
f8
02
0d
f8
13
02
17
05
17
22
f9
eb
04
1b
39
fd
1d
07
2f
00
2c
07
ee
fd
fc
fd
16
f4
f0
ff
11
f6
fb
f2
0f
2a
14
f1
02
0c
e4
d6
01
f8
f4
f4
f1
41
e9
fe
fa
f5
fe
01
ff
ef
f5
0c
19
ef
f7
e9
00
03
f3
f7
09
f4
e0
12
ee
d8
0b
0e
e4
f9
fd
fa
19
ff
ec
ff
ff
fb
06
00
05
13
fb
09
fb
12
f0
02
02
1a
f8
fd
f5
0f
01
e6
02
0a
e9
ec
12
f2
0e
df
ef
c6
fe
12
03
0d
f8
00
f9
fb
fe
f7
01
ec
03
e4
04
f0
0d
00
ea
01
16
ec
ff
0e
ff
ec
16
19
fe
e1
ea
0b
00
03
14
00
f0
f0
ef
f8
ef
e1
16
01
02
fd
ef
ff
01
07
f5
0c
e6
fa
15
1f
ec
0c
19
e9
f3
e3
eb
fa
13
2c
e5
09
1c
10
da
09
0a
15
0f
0c
f9
00
09
fc
fb
e5
01
05
0d
d5
ff
fe
e8
e8
0f
1c
f7
d9
eb
fc
fc
f5
f2
0e
1c
0c
19
0b
f8
0d
07
f0
da
0e
f0
13
f0
0a
ff
03
fd
11
f3
00
cd
2a
11
f3
fa
4c
ef
23
ef
e7
f5
13
f7
dc
10
11
ef
ed
0c
0d
02
13
fe
ee
f8
14
0a
07
00
01
03
fd
f9
fe
f4
fa
05
f9
f6
09
01
f2
06
15
0c
40
eb
1c
0c
02
f0
32
e8
21
dc
1e
e2
f5
fd
ee
ee
05
e9
10
00
08
05
f5
f1
bf
fe
fa
11
f8
e7
34
ed
00
05
01
f4
0e
1e
f9
01
f7
f8
f2
31
1c
ec
18
e5
f2
0b
ee
db
08
d2
d9
de
1e
f5
37
d6
31
de
c9
ed
02
03
f9
f2
ea
08
e8
fa
f7
f1
04
10
06
fc
0d
1a
0c
ed
0b
14
05
f7
24
e8
f0
09
05
0c
0d
1b
24
08
f6
03
e5
da
05
08
e0
ec
ed
e5
04
08
dc
fb
20
13
03
0e
e5
fb
00
e8
18
f7
6c
fb
14
ff
03
f4
e4
26
0b
1a
17
1f
dc
0d
2f
23
11
14
07
ca
10
39
cd
0c
0e
e2
fb
04
19
f4
dd
0b
f1
27
fa
03
e6
f3
f2
dd
df
0e
d8
07
f6
e3
1a
dd
0b
f3
0e
eb
1d
f7
cb
14
08
17
10
2b
e0
27
10
0f
fe
04
22
e7
1c
02
c6
10
f3
1c
f9
e3
0b
cd
c8
0c
29
0d
1c
22
1f
0d
11
dc
eb
f2
d7
d2
04
dd
cc
dd
0d
f1
fc
01
f0
fd
0c
02
03
f2
06
ef
f7
f3
07
fd
05
ff
e5
07
e8
fb
04
e5
0a
05
0e
19
10
f3
07
fa
f2
fb
04
fc
f3
0e
ee
0f
e5
f7
18
fb
04
08
0b
dd
e2
fb
0a
03
e9
32
26
18
06
04
fc
e9
fc
06
19
f0
f8
f6
e8
f3
f2
f6
fb
04
e7
04
04
e3
fc
f6
00
f7
e0
09
04
07
eb
14
2a
05
f8
1f
ee
00
06
e3
fb
f6
fe
12
fc
ec
e1
28
00
06
02
ff
06
f9
f3
f7
fc
f9
f2
12
14
f4
f4
e1
fa
05
21
0c
0f
2d
f2
15
d3
01
25
10
01
d9
02
39
ea
fb
05
f4
ed
e9
f1
01
f5
f6
ff
e1
0b
db
f4
f7
d8
0f
f5
f4
10
f8
f0
10
03
0c
09
04
00
fa
1b
12
fe
f4
f4
11
f9
fa
df
fb
f2
ee
04
e0
00
09
09
eb
10
1e
15
13
11
0e
10
f9
eb
ea
46
0d
17
bb
1c
16
bf
16
00
ee
0c
11
0c
17
fc
fe
e9
01
01
f8
ec
05
0d
f6
f0
ee
e6
e3
f2
01
e8
ea
e8
f8
0f
04
f1
fb
10
0a
0f
00
ff
ee
20
19
f3
fe
f9
00
f5
f4
03
fd
fc
27
20
f0
06
fb
1b
29
f5
fa
02
0d
09
03
f3
e1
0f
04
f0
0d
f7
f3
fb
0c
d6
f8
04
f9
f8
07
12
16
0d
fd
01
f5
05
ff
00
fb
01
13
0a
fe
02
06
f9
01
ef
06
e5
02
f3
df
df
00
f9
fa
f7
f5
d9
0b
00
f7
03
0a
23
eb
16
0c
06
2b
f8
f5
25
ec
0c
04
18
00
01
f6
09
0b
19
06
03
36
ff
05
df
ef
ec
2c
35
ff
23
ee
f0
08
fe
e7
e9
fd
09
ed
0b
ef
18
d0
18
00
c7
1a
19
13
1d
1a
fb
2f
da
05
0b
da
2c
b6
f1
16
cf
c3
02
f7
dd
da
12
ef
f0
d9
12
11
0d
fe
eb
f2
00
f8
1d
ff
f6
18
fe
22
e5
00
13
ea
14
d9
e6
09
fd
ce
bc
35
fa
e4
0f
e9
f1
e6
24
16
12
16
22
e7
fe
07
f6
0a
14
28
db
1b
fb
21
15
fa
fd
e1
2d
34
02
03
11
0b
f0
11
02
f3
f0
e9
13
22
f6
01
07
02
da
f5
0b
f4
36
e6
f5
0e
f9
e5
f5
df
de
20
18
02
26
e8
ea
09
09
db
dd
05
04
db
00
f6
02
04
15
0a
f9
fd
1e
0c
10
0c
21
11
0b
fa
de
1b
eb
13
06
fa
06
04
0b
f2
fb
05
0f
f6
f4
e8
0c
0d
f8
e3
e0
d9
02
fb
f6
f8
f2
fb
f3
11
ff
f1
00
ff
db
09
f7
e3
fc
0c
f5
04
1b
fa
d9
f6
f3
fe
ca
ec
e7
0c
f2
e4
1c
1b
0a
03
10
fd
05
24
f4
f4
0c
fe
fa
0b
fe
0e
f5
fd
20
08
fe
f9
ea
0b
e6
dc
ff
ea
18
f5
ea
f6
09
09
ed
fb
0c
e8
09
fd
ec
1f
e6
0a
fd
01
f6
09
08
08
05
0e
03
0f
eb
ef
0e
14
16
f0
fc
06
f7
f8
f2
0c
0e
e9
19
ed
16
1a
fe
ee
08
d1
f8
05
14
e3
f2
25
22
10
fe
11
e6
1a
1e
20
17
e9
15
d2
04
1d
0c
fb
01
e1
fd
f8
fd
f4
0a
fa
e7
e2
d0
ed
05
f9
f0
01
09
ed
ea
fb
f8
1d
e5
05
ee
de
ed
0a
11
07
02
f9
08
f0
ff
f7
e8
fc
ed
02
fb
dc
08
e6
ed
f8
d9
29
ff
ea
fd
01
08
10
e7
f8
01
19
f6
ee
fe
fd
13
08
1a
e5
29
f7
01
f6
00
11
2a
05
0f
03
f9
1c
e0
fc
f7
eb
07
00
f8
02
eb
06
f7
fe
fc
fb
01
ff
ff
f5
f7
18
de
f6
e4
f5
e7
e0
10
f4
12
fe
02
04
ff
2a
10
f0
03
cc
1a
21
e8
d8
1a
f9
0e
0a
dd
df
21
04
1c
1e
01
1a
df
0b
f9
0d
0b
e5
24
f7
0c
ff
fe
f9
f3
14
fd
04
f8
02
0a
fe
0a
01
10
fe
0c
05
fd
15
02
1c
ec
07
fe
15
ee
f5
0a
e7
09
e6
08
ee
fc
f9
ff
11
10
10
14
0d
ee
ef
17
14
16
13
04
24
e3
08
12
1d
16
fd
1c
ff
02
07
0f
eb
fc
16
24
07
05
0f
fa
0f
f4
f1
0b
11
08
f4
f3
ec
0e
fa
e9
0b
0a
0a
db
08
f9
f4
e4
09
f9
08
f6
f5
12
d3
f5
12
05
09
e6
02
00
e8
04
15
ef
03
ed
fc
02
fe
f4
f6
06
26
23
f3
33
dc
fc
17
12
09
ea
d7
29
c3
ea
ec
d8
e7
ef
13
fd
f6
fb
08
03
ed
01
09
fa
0d
1d
08
f3
fb
06
1c
02
29
cb
08
02
25
05
fd
19
c2
1f
1a
f6
00
2a
db
08
fe
0a
fe
f7
17
fe
f9
fd
f9
dd
ef
e9
1f
11
fa
1d
19
e3
06
fc
09
1a
09
06
1e
03
09
ef
fb
07
21
10
18
db
08
03
d8
f8
01
02
f4
16
0d
f9
10
0d
e9
10
17
07
06
29
fc
eb
07
f4
fc
f0
01
eb
02
11
e2
0b
e5
08
f5
f3
ef
03
02
e9
11
e7
db
e2
fd
fa
d2
e5
f1
f6
08
05
f3
e9
02
00
08
fd
fd
18
fa
ee
e8
f5
f3
eb
ff
f7
fb
02
0e
14
f6
ff
21
25
01
f9
ed
12
0f
ea
05
04
e9
cd
14
02
f2
f8
0e
07
f8
07
fb
0b
02
1c
fc
f6
06
11
f7
01
17
08
e0
e2
e7
fd
fd
f1
06
01
df
e8
01
f1
29
ee
15
0e
20
f6
fa
0d
e6
e9
f4
1c
1e
e4
03
24
11
02
ff
f9
fd
0e
fa
18
ea
f2
04
13
18
cb
e0
0d
fc
19
05
0d
f6
10
f7
01
f9
07
04
05
fb
10
f6
06
fc
03
01
03
ef
f6
fb
11
00
0e
17
ff
de
f9
ee
0a
11
f7
f3
ea
fe
ee
ff
f7
10
1a
0d
fd
04
e5
16
ea
f5
16
ff
f5
12
0e
04
02
19
00
fb
f7
ec
09
ec
d9
ff
e8
01
f6
1d
ed
06
ea
07
1a
fc
0e
eb
1b
16
ec
20
09
05
f7
17
07
28
ea
f9
f2
db
e8
ff
12
08
d6
ee
0d
d5
d5
17
17
17
06
0e
0f
08
f6
ff
ff
0d
06
f3
01
fd
0f
fb
11
10
f7
02
03
0a
fe
ef
f7
05
02
01
05
f6
e8
03
07
0b
16
f9
e8
bc
18
f8
ee
0b
20
fb
0e
f8
eb
06
37
05
0b
06
12
14
03
08
05
ff
f9
08
0e
ea
f5
0f
10
03
fe
0f
05
ea
0a
1b
ce
07
fa
19
15
09
07
0c
11
f1
06
fc
f9
02
06
0a
09
18
15
e4
fb
0a
11
e6
db
fa
12
ff
07
fc
f9
0b
04
1d
15
03
ff
ff
ff
0d
f3
06
e0
11
00
13
f5
d0
ea
d9
e8
fe
0f
f2
e5
04
0d
eb
e9
fe
df
f9
15
01
d8
ed
f4
10
0c
08
f7
0b
f8
00
f5
ff
ef
09
03
08
e6
04
e4
12
f7
fb
02
f7
02
ed
e2
e6
da
df
08
25
d5
05
dd
26
1f
11
13
45
23
01
f4
01
0d
02
fe
02
0c
f6
fc
01
00
02
08
03
03
f8
fc
f9
e5
f4
0a
ec
e8
15
e8
00
fd
eb
fb
fd
04
09
f2
17
04
0f
fc
05
ea
19
02
02
08
f6
ee
1b
03
fe
0d
ed
f4
fd
1d
ef
f0
f6
11
fd
f9
ed
f7
10
f1
f5
f7
fa
f3
f9
f8
07
fc
fc
fb
f8
f8
f9
0f
02
01
f8
f7
10
fe
03
ef
10
fd
03
01
f9
fc
00
05
f4
04
10
dd
0a
05
f8
de
ef
f8
f0
05
ff
fa
01
f3
05
f6
0b
d2
f7
0f
e6
ec
18
14
f5
e5
f7
12
01
01
0e
20
1b
f5
fc
fc
01
02
11
f3
eb
e3
ff
11
fe
e7
08
2c
fc
04
fc
05
0e
11
f0
0b
f8
10
07
e7
fd
01
19
e8
0e
fc
fe
0e
eb
e8
22
07
ed
de
d6
f9
05
f4
d8
ff
03
fd
fe
e8
e9
0d
fb
f0
f1
f5
fb
f8
fe
f7
00
ff
07
07
09
18
f6
e6
1d
00
fa
09
e8
0e
fa
0d
e6
11
2f
f0
05
ea
0f
06
24
14
1b
fd
f8
22
de
f5
ff
0f
fa
fe
f9
e2
ff
f8
fe
fa
17
0a
04
01
14
f7
ea
11
f3
f3
0a
fe
0c
fe
0d
f2
09
14
fc
f0
12
02
07
10
09
ec
02
04
f4
ff
08
00
0e
e3
0c
09
0e
ff
0a
0b
f6
1a
f6
0b
0a
02
ef
01
fb
06
f7
f9
f1
0d
e3
e4
01
fe
30
ef
1e
2b
01
17
01
04
2e
ff
21
e9
f5
f6
f5
11
f6
05
f8
fc
04
fd
f1
00
f0
f9
ea
ea
e7
ea
fc
1d
0d
27
14
10
09
f8
16
0d
fd
00
09
08
fc
ff
ef
20
f8
13
0d
24
f3
ef
f0
15
10
e5
11
fe
04
ec
18
f5
eb
0f
1b
04
fb
21
01
f9
03
0e
18
f5
e2
12
f2
ef
eb
f4
ed
02
18
08
fd
f3
09
0a
f9
03
04
12
13
06
0e
00
20
01
08
0e
f5
0a
f8
14
ef
f7
fd
0b
dd
09
f5
12
12
1c
f1
f3
eb
f2
01
de
fc
01
fb
e7
09
22
13
20
1a
17
0b
06
07
fa
0b
ec
08
f7
ea
04
f6
13
02
fc
10
12
fd
06
f7
0c
03
0a
1e
07
fd
04
f6
dd
0d
fc
1b
06
08
f0
16
1c
14
f0
f7
fc
fc
08
ed
08
fc
1e
1b
15
ef
01
f2
ff
25
00
1c
14
f5
fa
f9
04
f4
fa
f5
e9
f5
02
09
05
f5
08
e1
04
03
f9
12
02
0e
16
fb
f0
2f
05
e8
07
df
26
f2
f9
02
1c
1d
10
12
2f
14
f4
de
09
ef
11
03
f6
08
ed
16
1a
fc
08
f4
fb
1b
f2
f1
f8
04
13
fa
04
fc
05
0d
da
20
e0
07
06
2b
fa
ef
28
07
ee
01
0c
0d
f9
f7
0f
14
ec
e2
fd
eb
f2
fd
07
14
e3
03
f5
0a
02
12
13
f2
02
ed
03
0c
f8
fb
f6
e3
fc
08
ea
fb
ff
13
fe
d0
f8
f7
01
f4
18
09
06
f2
ef
0b
fb
f5
f7
fc
00
ff
e7
0d
12
f0
f8
df
03
d9
e7
10
04
e5
e4
17
18
1b
e8
1f
0c
02
f5
11
14
07
08
f4
10
f6
05
0a
1d
f0
02
f2
02
f5
01
fd
e6
19
08
09
ec
11
0e
09
f6
fc
fe
e7
01
16
03
f1
05
f8
fc
21
ec
0c
0c
14
e6
0c
0d
04
0c
f9
f3
03
f6
06
10
ea
f7
00
02
f2
07
e4
f9
f3
08
19
e0
f2
fc
0b
11
04
00
f3
ee
00
fd
10
07
0b
1e
01
03
09
fb
2b
f7
0a
f8
0e
01
e4
10
f3
fa
0e
14
02
fb
00
02
12
03
08
08
1a
f9
05
02
05
14
eb
03
f1
fa
09
13
eb
e2
fe
f6
e6
ea
e4
f7
07
f4
1d
f5
ff
ee
f8
f9
ea
09
04
f3
f9
0f
f5
02
ed
10
0e
f1
f1
e3
ec
f6
f7
f6
fd
08
df
f1
e4
f3
fa
fb
e1
f6
0a
0a
08
05
f0
07
17
fb
17
1c
06
1c
f6
f2
f0
fd
00
e1
0c
11
ed
09
04
04
ec
f9
f9
e0
f1
ef
08
f1
e5
11
f9
17
e8
16
03
03
17
15
f3
03
10
f4
0e
03
f2
05
f8
f9
1d
00
0b
0a
0d
f2
e7
ee
15
0d
06
16
0f
ea
fd
12
1a
0d
fd
fc
06
14
01
06
34
1c
fb
0f
f8
ed
04
f4
17
ff
e4
0d
ea
fb
0c
fb
f4
06
fd
03
e9
15
22
e1
e8
33
da
2b
02
fb
f6
10
02
ef
f7
fc
fb
04
0b
17
df
f0
f5
0b
ea
10
0d
ef
fb
fe
01
fa
02
f8
04
fb
00
01
f9
00
fa
05
f2
06
0d
1d
0c
f7
e9
ea
09
17
08
14
ed
1e
e9
ec
f9
e7
f4
f6
0f
ec
01
02
11
f7
13
e3
12
1d
fa
f8
11
1a
fb
ff
2b
0b
23
09
01
10
e8
f6
0f
f5
02
06
f6
f3
08
04
d3
08
fd
04
17
fe
1c
00
00
ea
17
19
f3
f8
18
0f
fe
12
ec
04
fd
07
04
06
f7
12
f0
fe
e8
05
2f
41
00
19
00
17
19
04
35
3c
d1
0c
ef
e7
ed
ec
02
f9
dc
fe
ea
f0
ec
08
19
10
ec
11
d6
e7
09
0b
11
03
08
1e
12
e9
1d
05
f8
fb
06
f4
31
f8
39
2b
18
ff
2c
ff
25
dc
fe
13
23
fa
04
f8
f8
0d
27
01
fd
1a
f3
04
f3
20
11
fc
f3
f0
f7
f8
16
ef
d5
00
1c
06
f2
0f
fe
fb
04
f8
f6
ec
f6
0a
f7
f9
16
08
eb
db
e4
f6
ff
fb
02
18
1a
f0
11
19
dd
01
17
08
11
dc
15
fa
fd
c0
f7
f6
03
fc
0b
18
dc
fe
20
10
08
ed
f5
0e
02
eb
fd
fa
01
d3
ea
f4
0e
01
fd
fa
00
05
f8
0a
f1
fd
08
10
f2
f3
1d
05
f3
06
09
17
0f
10
e8
fe
15
f8
e8
da
fd
10
09
0c
10
19
1c
e3
11
f8
04
00
ec
fc
f8
e8
04
f8
00
f7
11
f3
04
f9
0c
30
cf
02
05
f7
fb
12
1c
fa
df
26
ef
f3
e8
09
fa
10
eb
0f
03
fa
f1
e6
0d
ff
04
e9
eb
f3
00
f8
06
06
fe
f3
fa
0e
f7
e8
f7
11
0a
09
e7
fd
0b
f5
f7
19
f1
0c
ec
0c
fc
03
03
18
01
03
ed
e9
d9
f5
00
06
0e
e1
0f
df
0c
ff
f5
fd
ed
f1
e4
1c
05
f7
eb
fe
f7
fe
f1
03
e3
e7
0a
fa
06
ff
fe
ec
ca
f4
ef
fa
f8
01
fa
f5
03
11
e9
fe
ff
02
ff
02
02
13
04
fa
f9
01
f7
06
03
0b
02
04
fa
07
f3
08
e1
e2
09
0a
f6
18
1b
08
fc
2e
14
0b
f9
25
f3
07
fa
ec
f3
f5
e1
13
0a
0d
df
01
f5
fe
22
ef
14
ea
0e
ea
e6
13
e2
fe
04
ec
15
0a
ec
22
c6
02
fc
25
d1
00
21
1e
00
f6
f0
f2
14
0b
e1
14
e7
25
e3
e9
01
03
03
f4
11
ee
f1
14
10
df
ee
60
f9
18
0b
07
f2
0c
ee
fe
0d
fb
fe
02
f8
01
e6
04
0a
f9
01
03
10
07
0a
15
05
ff
e6
03
03
03
08
11
fc
02
f4
fe
f3
09
1b
11
04
09
fc
01
13
10
e3
0e
ec
0d
ec
fe
f5
04
f7
10
0e
fc
19
07
08
02
03
2c
01
02
fd
39
1d
f9
fc
1a
ff
09
0a
15
18
02
0f
f7
f2
f9
fd
13
ce
f6
ee
f4
f1
1a
fc
d9
ee
0e
e4
f5
0d
0e
19
17
d4
0d
24
23
0a
16
0c
0b
19
0d
02
1b
b5
21
e6
ee
0f
01
04
2e
fe
23
e8
0b
1a
ee
04
21
ee
14
d2
01
13
08
0b
06
fd
04
ec
fe
02
f2
ff
10
ee
07
eb
e6
f7
07
2d
03
f3
10
03
e9
1e
26
28
f8
f2
0b
fb
fb
18
1b
0b
02
32
16
0d
bf
1c
1c
0c
15
ee
12
da
23
39
f1
fc
e9
fc
ee
f0
f4
f9
d4
e8
09
f7
0d
fe
f6
d6
2a
04
04
ed
ea
f4
1f
fe
03
1b
f3
2d
fa
0d
fd
0d
f5
16
ff
30
14
2a
d4
11
09
1b
0e
e5
1a
e5
1f
08
ec
f5
fd
ec
02
ff
26
fe
ea
06
0b
13
0b
07
0b
f1
13
09
1d
f8
0c
03
0f
0a
fe
0b
0e
25
08
f5
fd
05
07
03
21
ff
02
e3
24
15
21
06
18
04
05
14
12
fa
f0
18
05
0f
0b
f0
19
dc
10
05
e7
23
05
14
ed
0c
f9
0f
2e
fe
f6
e4
0e
11
fb
06
f5
eb
1a
ed
ef
08
0e
1c
33
d1
f5
f1
20
08
11
15
27
fc
2d
e3
e1
dc
f3
0a
01
eb
e8
ed
ed
09
ff
29
1a
e3
ef
f9
0d
ff
e8
13
1b
eb
ea
ef
0d
03
0e
0d
1e
19
f3
fb
03
0b
0a
ec
f4
f3
0d
e9
07
09
fb
d5
fe
21
0b
08
fc
10
1a
19
01
1a
0a
30
f2
10
0f
fb
09
f4
17
de
0a
2a
09
fa
f3
e8
fe
00
ce
e2
03
0b
dc
e1
e2
09
e3
e5
e7
fb
fa
09
0a
fa
d5
0f
17
03
e8
eb
fa
f7
19
06
05
f9
f3
08
03
f8
06
00
f1
f4
04
06
00
01
ff
f5
f6
f2
1e
f4
15
27
fc
07
25
20
f8
d1
f7
f8
f7
08
ea
f7
0f
df
1b
0f
0e
ec
1e
12
fc
19
05
ef
ed
ff
05
f3
fa
ff
e6
f2
ed
17
1a
e4
09
dc
15
e9
fd
ef
e9
e6
06
13
f0
dc
ee
07
ff
fd
0e
fd
0b
f8
0f
f2
01
1a
1d
e8
16
d6
10
1a
ea
20
36
fd
1c
fa
d9
f9
38
0c
03
0e
0c
fa
02
f9
ff
f0
01
f0
17
f4
10
0a
fb
fe
04
ee
fb
ff
f8
00
06
0c
ff
04
06
0d
fa
fc
08
1a
06
00
ec
f4
12
fe
09
17
04
ed
04
f7
ef
f2
ed
ff
06
11
05
0e
23
fa
eb
0f
e3
02
fd
0d
ef
f4
0c
0f
06
ef
15
10
1c
15
f9
18
ea
0f
fe
17
16
e6
0e
fb
06
fa
f0
08
05
f3
12
e8
f2
fe
f0
0f
f6
d7
02
42
2f
07
0e
f9
f5
1a
26
16
07
c2
0c
c1
09
0c
06
04
f5
df
db
e7
07
f9
f4
07
15
ea
fc
e9
f6
f0
09
0c
e1
05
f8
ea
eb
03
fb
11
f9
eb
22
d6
fc
fa
0c
06
f5
fd
16
10
ed
0a
06
2d
00
fa
f7
f8
01
1c
04
0c
d9
23
13
1f
c2
03
2e
21
0c
f0
19
da
1c
12
fa
ec
f2
df
f6
f7
ec
f7
ff
f3
ec
04
ed
f4
f4
e1
f9
0c
08
f8
f9
12
16
fc
ee
03
0b
17
f9
13
00
0f
f7
f7
fc
1c
12
3a
dc
0f
0e
28
fa
e5
14
ea
05
03
cc
18
fb
ec
fa
1c
0b
ef
13
16
f0
20
12
de
d3
04
01
fb
fd
0b
d9
ff
e9
05
0c
16
05
02
1c
f9
00
0d
e8
19
df
12
01
01
0a
12
ee
f7
e4
12
04
07
10
23
1d
ea
f1
14
f5
07
fe
f6
fe
24
fb
06
ff
07
2b
12
02
f2
20
f2
f2
ed
f3
0a
d4
27
23
01
23
18
f4
0a
20
fc
1c
ff
16
0e
fb
ed
f0
f9
09
08
f9
10
f6
dd
f7
fe
e9
09
e1
fc
da
f4
0b
0b
fa
f7
02
fe
fd
fd
e6
05
0d
ee
05
f2
0c
13
15
15
11
03
fb
05
0e
f9
17
0b
07
05
03
f6
0a
f8
fa
f4
f9
f7
10
fb
f1
ee
08
0d
04
05
f3
18
f1
0a
d2
25
07
e1
03
e8
06
ed
da
09
f7
01
08
fd
f2
f5
fa
1e
fe
fe
05
ef
02
07
01
19
fc
06
08
f5
e8
12
07
ef
05
df
11
f7
f1
14
0a
f3
fc
05
0b
13
dd
16
0f
ff
fe
ed
17
01
18
08
fe
15
f0
27
0a
1a
00
ed
fe
ff
dd
1b
f4
18
0e
0c
18
ef
03
fe
08
ff
ee
f1
10
06
f1
f4
04
f3
fd
f5
ef
ee
ed
fd
f8
0d
fb
d1
f7
fc
f6
04
ee
0f
0f
0b
01
06
f2
09
fb
f6
ff
1d
de
f7
0f
d3
09
04
11
eb
fa
3c
32
dd
15
b8
23
0c
db
f5
34
d1
2f
f8
d4
fe
2f
f7
e4
0b
0b
08
ec
0f
0a
06
e5
05
ff
f9
fc
f9
fc
08
05
04
f9
fb
fa
07
06
0d
0a
f1
04
04
11
0a
01
dd
f1
03
f0
fe
18
f9
e6
f1
f7
24
f7
14
00
17
fc
10
00
ee
16
f9
07
04
f9
02
fb
f5
06
15
0a
1d
17
fe
08
10
11
19
e0
10
1f
f9
e9
14
0b
02
11
02
0f
fc
e5
e5
1a
05
ec
f4
2c
12
ff
ec
e6
10
01
d3
e7
2d
fa
13
1d
0f
f0
fb
f4
0a
01
f0
19
f3
f0
0e
03
ff
07
03
0c
01
01
0d
d4
15
0c
0b
0f
f4
f2
0a
09
26
1b
11
11
12
00
17
f0
0c
ef
e7
11
10
ee
f2
f2
12
f1
fc
04
fc
e5
07
02
04
fe
06
29
fd
ed
0d
14
04
d5
1a
11
15
e2
f9
17
11
ec
0e
26
e0
fb
01
f7
05
2c
de
f9
ff
d3
0a
ee
f7
03
e7
0b
08
06
f0
05
f7
1b
ec
ef
f0
ff
11
02
d9
02
f4
e8
e3
e9
0d
01
da
f6
0c
f3
14
f4
08
0a
1b
fc
0c
fd
fa
07
0a
fe
17
27
fa
ef
0a
fb
0a
1d
27
2f
ed
23
f6
05
ea
ef
34
14
0c
0a
ed
0a
13
14
14
0e
08
19
01
ef
f0
0b
01
11
e5
03
15
f9
18
f3
01
0d
f7
04
f7
0a
fd
fb
ff
f7
fd
09
05
fe
03
08
03
e1
14
04
fc
f0
f3
09
f8
f4
0c
cf
f2
fb
0b
18
f7
08
16
05
12
ff
1a
ed
25
13
09
fe
02
f3
13
19
11
13
eb
06
ec
10
f5
ee
07
0c
fc
16
fd
00
16
02
0e
1b
f6
1d
04
10
12
02
20
f5
13
12
11
e5
29
28
21
0f
eb
11
02
07
0d
20
0b
e0
f0
ef
d5
0b
fc
f0
1c
da
09
04
06
e2
0c
15
08
f3
06
19
20
ef
f4
ff
1e
fc
f3
04
02
08
f0
f5
f1
02
02
fb
e1
06
0f
ef
05
eb
1d
05
03
0e
0e
1b
07
06
06
0a
13
ff
e9
07
fd
f0
10
ed
1a
dc
f2
07
f2
08
e2
fb
fd
fb
f3
ff
00
15
ff
fd
09
f8
fd
08
ec
16
f9
0a
1e
f2
e9
04
11
11
00
e4
19
13
e6
de
ff
09
f3
1d
0e
0f
0d
11
0b
0a
03
0a
05
1a
07
07
e5
fe
05
11
0f
0d
d9
db
d4
f3
12
d5
0a
0c
05
d3
f9
d9
f9
f9
f7
fb
f0
e2
e4
e5
ff
09
e5
f0
05
13
0e
15
f1
2e
f9
17
fb
fb
ce
f2
0e
f8
0a
e7
19
26
fb
00
0b
f1
06
e8
fd
15
00
08
fd
13
0e
f4
1b
10
f0
03
fc
ff
ed
0c
10
f9
fb
0a
23
0b
0b
0a
06
0a
f9
0b
05
04
04
01
03
f6
06
08
ee
07
f4
fa
ec
e8
eb
ff
0a
14
eb
00
d1
fd
ff
0e
04
ec
12
14
dd
e2
16
ec
27
03
03
ec
ed
18
ed
dd
0c
fb
f1
e1
17
00
04
fd
10
1e
0e
f1
07
f3
14
ff
0d
04
fd
f4
fb
ff
0f
04
11
1d
eb
f2
ec
08
f8
fb
f7
e8
14
fc
05
15
23
fd
0a
10
ee
f1
23
12
00
f7
fb
1d
f8
04
1a
1f
c5
1a
dd
28
26
1e
a8
d2
0b
12
1b
b1
13
12
f7
c9
f9
04
fe
28
08
ea
ef
0a
04
f4
01
12
07
fb
ee
0c
2a
e4
17
1b
11
00
e0
f1
ec
ea
15
03
02
08
04
04
fc
02
f2
f2
fe
ff
eb
f6
00
fc
f5
f8
fd
00
f0
f7
d1
07
e6
16
3b
fe
c7
f4
ee
08
21
d2
03
0d
ee
c6
0d
f3
13
17
08
d3
f4
20
03
fb
f6
01
e2
f2
f9
07
ef
03
e8
f0
f8
11
01
17
fd
fe
e4
f8
f8
f2
ea
f8
f5
03
f6
da
02
06
03
f6
00
00
05
0f
02
f5
fd
e2
c3
18
0c
02
14
2c
d7
bc
e2
f4
26
cf
18
fd
0c
ba
dd
f7
0d
e5
ff
0a
dd
ef
e8
e1
1a
e0
1d
02
14
04
ed
17
ed
e4
fe
10
fa
d9
00
09
13
04
fd
f9
10
03
11
fd
fc
2f
19
0a
ed
16
08
f8
09
05
fd
11
fb
03
05
ff
da
09
f0
f7
2c
0d
1a
19
fb
23
fb
08
02
0f
f3
04
f6
37
0b
f9
d7
f0
e1
08
16
e6
0d
04
f6
e1
ec
08
f6
0d
07
fb
0d
24
09
18
07
f7
28
1d
0c
24
0a
fd
0f
06
17
05
f4
09
fd
f9
01
02
07
fd
03
fb
00
04
28
10
0f
ff
f6
0f
0e
e7
0d
00
17
01
fd
06
f6
fe
d8
e6
fc
0f
ea
05
0b
cd
fc
d1
29
eb
fd
03
01
41
d3
1b
1a
39
22
0a
2b
48
28
02
37
22
e4
14
e7
f2
f9
eb
06
ff
f1
f6
e8
f2
11
ef
09
f7
14
02
0e
01
fa
0c
f5
fe
fb
ee
f6
14
f8
00
0c
f6
08
0c
e4
fa
f4
dc
e7
0c
f5
f9
08
f4
07
e5
11
04
fc
f7
f4
04
ec
36
2a
19
e0
15
07
04
22
e6
33
08
fe
1b
b8
93
41
2a
5a
cf
9b
37
18
c1
2c
af
36
49
10
b5
00
04
03
1d
0e
09
f3
fc
fb
ff
01
f2
23
fb
e4
06
02
f5
04
fe
f9
eb
00
fd
fa
ef
e9
f5
fd
f8
06
f8
21
df
12
04
e5
e7
23
2b
d2
ec
eb
2c
09
05
13
34
f4
0f
fd
1a
13
09
07
ea
fc
1e
17
08
f7
01
1c
f5
c6
45
80
03
e3
23
13
c6
29
55
13
c5
2a
26
c7
f2
f3
09
f4
05
0c
0d
fb
04
f1
13
14
ef
fe
fd
f7
e1
ec
ef
f7
0d
f9
0c
09
fb
06
d9
09
08
fa
e6
e7
04
fd
fe
03
29
17
0c
f8
04
ff
11
08
f9
ee
e4
fb
01
d6
ec
03
f6
fb
0d
e0
f9
07
ea
27
db
27
09
09
fb
ee
1c
de
f1
ee
0b
f5
e5
fa
fb
ff
0e
fc
d5
0a
14
cb
1b
d4
08
ec
41
dd
d5
04
05
2d
cb
42
03
ff
10
f5
06
0a
03
00
f9
07
04
eb
0d
fc
fd
f6
14
fa
05
f5
ff
0f
06
fb
fc
2b
0d
24
0e
e9
06
0e
14
fe
07
c4
25
e0
fa
fa
48
dc
d9
f3
01
29
c4
4e
fe
fd
04
e5
21
eb
10
f7
16
25
ea
33
30
e6
da
2a
29
e3
ff
e7
06
fe
05
15
ff
e1
f5
05
0f
02
f1
08
0a
ef
db
02
01
fd
ff
fc
01
f3
07
20
eb
14
f5
18
f5
fa
0e
2a
07
08
f6
fa
f3
1b
f9
0b
10
f4
14
f4
01
11
28
10
ff
0a
18
16
0b
d8
0c
0a
fe
10
fd
07
01
ec
00
fe
10
e6
10
20
12
f1
1e
f3
e9
1f
08
1b
f4
01
d9
e2
fc
f3
0e
fd
f5
da
fb
13
05
07
e6
03
f9
0f
dd
04
03
0c
0c
ff
0c
e2
f5
fc
fd
08
f9
08
fb
ff
e9
05
14
f2
f7
ed
fa
16
18
f5
14
ee
05
f0
f5
f1
fd
ec
f9
00
fd
fa
02
f9
fd
22
f0
06
00
05
05
09
06
e5
0d
f8
08
13
0a
f7
fe
fc
14
03
ed
03
0c
f2
f0
f8
fa
0e
0f
14
fe
16
19
ec
0c
f1
fe
05
f8
eb
00
07
f5
1c
fe
07
f0
f5
19
f3
f7
0a
11
f5
f2
14
19
09
04
fb
ff
15
eb
01
27
f6
08
f5
04
d9
e6
f0
f9
16
07
fd
3d
12
07
fd
04
fc
19
f0
06
11
22
da
f9
e1
ec
e9
e9
f3
09
e2
0c
f0
f2
08
f7
fb
df
fc
f7
1e
07
f2
f8
0a
0c
03
eb
1c
25
fb
f8
ff
0b
fa
ea
ea
e6
d7
fe
f2
04
0b
fd
f0
ef
13
04
fa
0d
13
10
09
fc
f2
f1
f2
f5
f6
f8
fc
07
ec
f9
ee
f6
f4
e5
00
ec
fa
ec
f4
e3
fc
07
f2
ec
ef
fc
f3
ea
01
f6
1d
10
e8
1a
02
f4
16
08
1c
0b
ed
0d
02
f4
f0
f9
ef
04
13
ea
f6
fe
fb
ed
f1
fc
0c
e0
03
09
09
e4
09
f2
32
f8
fd
ee
f0
fb
22
fc
1c
ed
09
e4
f0
0b
30
e5
15
fa
f4
fa
20
20
ed
f0
f3
27
f3
04
10
1e
0b
fb
fa
0e
fe
eb
05
04
f6
02
fa
0b
07
ff
e5
fb
15
03
16
1d
0e
fe
f2
fc
fc
03
e7
0c
fa
0b
f5
fb
c3
ea
fe
09
ea
17
2a
08
04
ed
2e
04
f8
04
23
22
00
f1
f9
f1
fd
03
08
02
0e
08
09
00
f1
02
09
fd
0e
fc
ff
27
21
06
ca
11
fc
ea
15
f0
10
e1
fb
12
03
eb
09
0d
f9
f7
f2
06
d5
f6
f3
f7
06
0e
db
f7
1b
09
19
f0
f0
0b
fb
fa
0e
f4
0d
f2
f4
02
f0
0a
21
fe
12
43
23
fb
f3
22
e8
df
ff
03
03
d6
ef
06
f9
d6
f4
f6
f0
01
06
fb
ee
00
07
14
05
f9
02
0a
09
ef
13
d7
d4
01
3e
0d
fe
f5
ef
38
f1
00
2c
45
ff
ec
12
31
1c
f9
04
0f
23
cd
16
0a
0b
fb
e8
22
32
26
fe
34
18
fb
14
10
01
24
d8
28
0a
06
09
0e
e8
05
f4
ed
f0
ff
f9
f1
12
f4
fa
e1
0f
fe
04
06
0b
ff
e4
1b
1c
0a
08
fe
e5
fd
f8
07
08
eb
e0
fc
26
f1
21
2e
02
ed
09
1d
20
f2
02
01
f8
09
dd
18
27
01
e8
fa
03
fc
16
fc
fb
11
ed
09
05
10
e8
e9
12
1e
f6
10
06
2e
04
0c
0a
09
02
1a
2b
f3
f0
1b
eb
fa
19
eb
0b
f9
00
d9
0f
1b
f1
07
11
16
06
0c
07
00
03
f9
01
02
08
ff
06
08
fe
0a
f7
fb
f6
09
f5
f4
0d
09
f8
f9
ff
0c
ea
f3
f0
f4
f5
fa
d1
f0
f6
e4
ed
fe
02
ff
02
00
e3
ee
03
02
fb
fb
0d
00
ed
2a
f2
1b
1c
0a
f9
00
fd
25
02
e3
19
f4
04
df
d2
06
09
fa
f4
f3
ec
e7
e6
0a
0c
0a
27
fe
0d
fb
eb
f7
e7
fb
f4
f9
07
38
e4
d7
17
00
f0
ea
2b
00
eb
1a
ee
03
e8
ea
1e
05
0f
f4
f5
19
ea
f4
eb
f1
fb
0f
ef
09
e4
06
05
04
f0
07
f0
08
01
04
01
03
ec
f8
08
fb
f1
f3
f9
12
f6
ea
10
f4
ec
fa
f5
f1
08
fd
e9
05
f8
04
0c
f8
f4
10
0b
04
06
09
fc
06
2e
fe
e3
0c
e5
f3
13
0a
02
22
d6
0a
f5
0f
ed
f3
2d
0a
02
0d
07
ef
11
00
06
06
fc
0d
f1
fe
0e
0f
22
0d
3e
0e
07
0e
e0
03
e9
11
25
1a
e7
f4
fe
06
de
f7
db
e1
ea
1a
fe
ea
dd
eb
1c
15
fc
11
26
27
fd
f5
ec
fb
f1
e3
03
16
1f
02
02
12
f1
f8
f8
fe
24
2d
fd
40
fc
0e
18
08
fd
07
f1
17
fe
04
18
10
04
f0
f3
f3
fc
03
10
14
14
f7
1e
07
f2
f0
f4
06
f8
fa
f6
de
06
eb
06
03
15
f5
f7
0b
ed
ef
1c
06
09
eb
0a
fe
13
f2
e7
17
04
ed
1b
fc
0a
ed
03
07
f4
0a
fa
fe
02
f7
0e
f7
ee
f5
f2
f7
f1
00
f8
fa
ef
16
ff
29
1a
06
e8
03
10
1a
f1
fb
0a
fd
f4
e9
0c
ed
08
04
13
f1
f3
08
0f
f7
03
1d
ed
f2
0a
10
f5
e8
0c
fe
01
ff
f9
07
f6
e9
09
04
ea
e7
04
05
13
f7
01
1c
f0
0b
11
fe
14
f6
de
fd
11
10
db
f9
ee
21
07
fa
12
0f
e6
f5
ef
0e
f9
05
eb
00
e4
d6
06
f3
e9
f9
01
fd
0d
e8
04
05
00
fb
ef
0e
f0
fa
e4
07
e4
f2
ff
15
fd
f6
1b
06
0d
00
f6
fd
de
da
14
05
f1
22
ee
ee
f6
06
0d
09
df
0e
f4
09
db
0d
23
1c
01
3b
18
ea
f3
13
03
08
f9
f7
14
0b
e0
fb
22
18
ef
19
03
fa
07
ea
f9
2b
ff
e7
24
1b
dc
ef
ff
e3
12
f0
ee
f6
22
0a
03
e6
ef
32
fa
0b
0a
19
0a
1e
f3
21
12
ef
11
0b
1f
10
0e
16
f9
14
07
f0
f6
0a
07
13
01
0e
0b
0e
f9
02
f1
d2
16
16
d3
f1
dc
ff
ee
ec
f3
28
f1
df
d2
f4
17
f4
23
e7
f9
07
02
e4
f7
fb
f8
f6
f8
08
ea
fc
ff
1a
e9
f1
0b
15
ed
05
11
ea
f0
13
f3
fc
06
35
f3
ef
1c
06
00
fa
e3
0c
00
05
03
f7
e5
fa
1b
04
13
dd
0f
f8
ff
de
1e
fc
ff
07
11
f8
0d
17
f2
0e
db
05
f1
ee
df
db
0c
03
f6
00
f5
f7
f7
1a
05
fc
f7
03
e7
f0
e1
03
fe
07
fc
01
fd
03
fd
fe
01
07
fd
f9
01
f9
fe
03
e8
03
ea
f9
06
f9
fa
06
0f
0b
ec
fb
e1
09
f8
d7
fc
e8
f1
fa
f7
f0
f8
06
ec
f3
ef
f0
f2
f7
01
f6
01
eb
f4
e5
fb
ed
08
f0
0e
0c
ed
08
ff
01
13
fc
20
fa
f5
01
f9
ff
07
ed
0b
04
e4
f2
fb
ff
ed
11
1a
0d
1b
fc
05
fc
eb
11
d4
04
20
03
e4
f0
ec
04
cb
f1
e1
ea
02
0c
12
d8
01
f6
11
0e
f0
ff
14
1a
18
f8
04
16
00
f6
f4
08
05
da
ff
13
ef
e0
00
16
08
f0
1e
30
05
fc
f5
f6
f3
d6
fe
06
05
ef
e9
0f
e6
ef
fb
09
05
06
05
08
01
e9
10
06
f7
f3
26
02
01
03
e8
f4
01
10
26
ee
1b
fd
0c
20
00
fa
16
17
f3
ef
0a
f8
10
0d
03
09
eb
f4
0f
05
fb
ed
06
10
06
0f
e5
ee
fa
02
00
f0
08
09
ed
f7
15
08
d8
ed
eb
f0
f4
f5
fe
02
0c
f7
06
04
f8
f0
09
f5
06
0e
13
fc
f8
04
16
f1
00
0b
20
00
07
0b
ff
0c
ee
04
fd
ed
21
03
12
e3
ed
fd
15
f0
fe
00
ef
f8
ea
02
22
fa
ef
fa
fc
07
fc
fa
e1
e5
04
f6
fa
f3
ec
0a
da
00
f4
03
fb
23
e9
06
ba
f3
16
e8
1b
fc
14
02
de
02
de
f1
eb
18
11
f5
07
05
14
ff
11
01
0d
11
17
01
12
13
06
f3
06
1c
f7
f6
f4
12
15
0d
15
0d
f8
0d
e2
e6
f4
10
f8
0a
ea
f8
08
ee
fe
f7
d7
f8
d5
f7
e4
00
0d
15
f9
f8
06
12
09
f7
09
00
03
e2
f2
08
e5
fa
f4
0f
f5
df
01
f7
0f
ea
ff
00
ff
ee
06
08
f9
15
2f
0f
06
e4
f9
27
0b
fd
01
05
08
fc
13
07
04
f6
1c
00
22
17
18
06
f6
1e
fc
06
0a
f9
12
f7
d6
ed
f5
07
10
eb
09
ff
f4
ea
ef
0c
f7
fa
f1
02
1f
fc
1d
0e
e7
fd
e2
d6
08
ee
fa
f5
f1
f0
f6
fc
03
0e
02
fe
fd
f6
f0
e5
1b
09
ff
ef
16
19
17
f8
0b
06
04
f3
1a
0c
13
05
fd
10
03
f8
08
11
04
e9
1b
f6
03
0c
14
15
f5
fc
09
19
f1
06
2c
05
05
01
17
11
21
00
f7
10
fd
ff
0c
07
11
01
19
13
09
ec
ff
f3
fc
13
00
e8
f1
e3
05
09
e3
e9
09
09
f1
02
ef
1f
08
06
ea
e6
13
28
f8
ef
19
2a
0a
0c
02
fd
10
ff
0e
ce
07
fb
f1
f7
0f
19
03
04
23
19
fd
04
fc
fd
0b
ff
fe
03
12
0e
05
01
0e
07
12
fb
f3
fa
fe
ec
00
06
f0
f8
f7
1f
dd
01
f2
07
df
dd
28
0c
0c
33
10
04
ff
07
f7
e8
0a
0e
fb
03
04
08
0a
ea
16
08
fb
f2
e3
23
e6
e8
1e
e8
07
f0
06
e9
19
f3
0c
06
f0
f0
fe
f4
f8
e0
06
13
03
00
20
35
eb
00
0c
0d
0f
0d
ee
19
ee
e4
0d
05
2c
e7
13
ef
13
23
07
2d
2d
11
e8
fa
06
21
15
07
06
01
eb
0a
f2
fe
01
0a
15
f5
03
02
15
f6
16
f4
08
00
ed
f8
1e
02
fd
07
e2
fa
05
f4
ff
11
ef
1a
fa
fd
02
05
f8
13
14
0e
06
07
06
e0
0b
1a
05
f5
0f
0c
fd
fc
10
f6
04
04
01
fc
0f
f7
f6
f9
fd
1f
ed
00
0e
0c
2b
f9
f7
eb
f3
05
20
19
e8
00
ef
1f
f4
f8
15
03
0b
13
0c
07
06
e7
f7
00
fa
f0
13
03
00
f9
d8
07
18
02
f9
03
ff
f1
fd
f9
02
ea
f7
ff
f5
f2
e8
f9
fa
14
0f
41
22
00
e8
0e
e5
02
01
e4
16
01
f0
f5
cb
fd
0b
fa
fb
0a
f8
e4
f2
ee
12
f3
1a
12
ee
00
f5
04
00
19
0f
fa
f1
03
f5
00
12
f0
07
10
fd
fa
f1
20
00
01
fa
05
ec
f7
ed
1b
0f
df
09
10
07
e0
fb
12
09
0a
fc
11
de
ef
01
f7
09
de
11
00
d9
e8
d9
26
f9
0a
21
1e
da
de
18
18
24
c9
1f
10
f0
e8
10
f8
fe
f3
ed
f9
f8
09
fa
03
09
f2
f9
0b
f1
08
ec
f2
ea
f3
f7
15
f1
f2
f3
dd
24
f6
ff
e8
21
0b
fa
f6
0c
13
11
0d
f3
fd
15
12
06
f0
f8
f8
1d
f8
fe
f2
ff
01
f8
13
1e
ef
f2
f1
17
eb
05
12
0d
01
01
f1
0a
fe
f1
13
09
f2
f1
e8
ef
12
f2
de
f6
0c
fb
09
f4
ff
07
12
07
de
0e
08
0c
f2
f7
09
f5
f4
f1
f0
fb
ea
e2
09
fc
1c
23
03
f5
e4
07
09
ed
04
d1
1e
e2
03
12
0b
e5
e0
25
2e
10
ea
17
12
e5
e1
fe
e4
27
ef
f2
fb
fb
f7
f7
e7
fc
20
f3
f5
1d
18
f0
eb
0f
f8
f6
f6
f0
ed
df
ef
04
06
ff
fc
12
0f
ed
cc
27
1b
54
ce
f7
27
21
ea
ff
e4
24
36
13
fb
12
ea
03
11
07
e3
f0
22
d8
e2
10
10
fc
cc
19
f0
02
08
15
06
0e
01
f5
f9
0c
14
0d
0f
10
0c
04
09
f0
07
f2
fa
f6
0f
f5
f4
0f
0e
fd
00
06
fb
fc
e0
ef
07
00
16
1d
00
f4
05
0c
19
0c
e9
0c
07
08
df
fd
02
e6
fb
f3
1d
2d
f9
fe
17
f0
07
fb
1c
06
0a
ef
06
08
04
f8
00
fc
09
f0
11
fc
f5
06
0d
02
ff
07
14
1a
26
05
04
1b
09
06
17
00
13
14
fd
03
14
f5
01
f7
f9
09
09
fc
f3
f7
0d
0f
eb
02
04
ee
f9
f5
f2
fe
f6
fd
0b
f6
05
11
ee
20
fb
2e
11
12
17
f0
fe
ff
f4
ec
11
0a
fc
f4
ec
fc
0c
f4
fc
09
f8
c3
1f
ce
03
f3
44
e0
d2
fb
03
2d
cc
48
fe
f9
14
df
0f
0f
f1
fd
12
e3
dd
f2
f8
00
f2
09
04
ef
fa
e8
f5
f5
1b
ff
07
e8
01
f9
fc
fb
ef
01
10
fa
e7
22
e4
11
0e
04
ff
ee
05
e9
ff
fe
f6
f8
02
f3
09
f7
0e
04
1a
13
13
07
10
dc
13
ff
02
17
01
ed
e2
f4
1e
e9
e6
fa
16
de
ea
0d
0b
07
df
1a
05
ec
fc
e5
03
07
fc
fd
03
f6
fd
f2
03
09
f4
fb
fd
01
e8
08
14
03
22
0a
09
ee
fe
04
ff
07
08
00
04
0d
06
18
e4
0f
e2
e1
eb
3d
06
01
f3
f8
2d
ea
f2
2e
16
