ff
03
0f
f7
0f
e0
08
11
e6
f7
ef
f6
f3
13
80
c1
19
17
02
06
04
f3
02
09
fc
e5
e2
0a
d9
09
e8
08
cd
e2
08
0a
e0
e5
06
f0
05
dd
dd
fd
05
d8
80
0f
1c
df
80
90
11
18
0e
07
f3
0a
0c
d2
fb
0a
df
f6
ef
10
f9
10
f0
04
05
f0
cd
ec
ec
ce
fe
d1
be
e9
cc
ed
0a
ea
e2
05
80
e5
06
05
ec
80
1a
1d
f5
b9
ac
fe
19
e1
0b
08
0c
08
bf
f8
08
e4
26
80
f0
f7
f4
80
80
00
20
0d
0d
ce
d2
0c
8d
fd
fa
07
d1
d0
fe
06
f5
cd
d8
d6
e8
1c
b2
19
1e
07
80
d9
16
ef
